{
  "</s>": 0,
  "<unk>": 1,
  ",": 2,
  ".": 3,
  "\u2581na": 4,
  "\u2581-": 5,
  "'": 6,
  "\u2581\"": 7,
  "\u2581the": 8,
  "\u2581n": 9,
  "\u2581a": 10,
  "\u2581nd\u1ecb": 11,
  "\u2581to": 12,
  "\u2581of": 13,
  "\u2581ihe": 14,
  "\u2581ya": 15,
  "\u2581ka": 16,
  "\u2581and": 17,
  "\u2581\u1ecd": 18,
  "\u2581nke": 19,
  "\u2581ha": 20,
  ":": 21,
  "?": 22,
  "\u2581any\u1ecb": 23,
  "\u2581ah\u1ee5": 24,
  "\u2581in": 25,
  "\u2581d\u1ecb": 26,
  "s": 27,
  "\u2581b\u1ee5": 28,
  "\u2581that": 29,
  "\u0323": 30,
  "\u2581ga": 31,
  "\u2581ma": 32,
  "\u2581m": 33,
  "\u2581is": 34,
  "\u2581e": 35,
  "\u2581ike": 36,
  "\u2581for": 37,
  "\u2581b\u00fa": 38,
  "\u2581Jehova": 39,
  "\u2581Chineke": 40,
  "\u2581onye": 41,
  "\u2581nwere": 42,
  "\u2581Jehovah": 43,
  "\u2581": 44,
  "\u2581God": 45,
  "\u2581ot\u00fa": 46,
  "\u2581\u1ecc": 47,
  "\u2581his": 48,
  "\u2581you": 49,
  "\u2581eme": 50,
  "\u2581with": 51,
  "\u2581mmad\u1ee5": 52,
  "\u2581was": 53,
  "\u2581be": 54,
  "\u2581o": 55,
  "\u2581I": 56,
  "\u2581N": 57,
  "\u2581we": 58,
  "\u2581mgbe": 59,
  "\u2581not": 60,
  "\u2581Bible": 61,
  "\u2581on": 62,
  "\u2581obi": 63,
  "\u2581mere": 64,
  "\u2581g\u1ecb": 65,
  "\u2581as": 66,
  "\u2581The": 67,
  "\u2581are": 68,
  "\u2581si": 69,
  "\u2581have": 70,
  "\u2581Nd\u1ecb": 71,
  "\u2581will": 72,
  "\u2581he": 73,
  "\u2581'": 74,
  "\u2581aka": 75,
  "\u2581anya": 76,
  "\u2581\u1ecdz\u1ecd": 77,
  "\u2581ji": 78,
  "\u2581it": 79,
  "ihi": 80,
  "\u2581by": 81,
  "\u2581from": 82,
  "\u2581s\u1ecb": 83,
  "\u2581b\u1ee5r\u1ee5": 84,
  "\u2581ime": 85,
  "\u2581kwuru": 86,
  ";": 87,
  "\u2581A": 88,
  "\u2581[": 89,
  "\u2581(": 90,
  "\u2581can": 91,
  "\u2581\u1ecb": 92,
  "\u2581our": 93,
  "\u2581their": 94,
  "\u2581Jesus": 95,
  "\u2581\u1ecdr\u1ee5": 96,
  "ing": 97,
  "\u2581n\u00e1": 98,
  "\u2581who": 99,
  "\u2581or": 100,
  "\u2581Jiz\u1ecds": 101,
  "\u2581they": 102,
  "\u25811": 103,
  "\u2581ozi": 104,
  "\u2581banyere": 105,
  "\u2581Ihe": 106,
  "\u2581p\u1ee5r\u1ee5": 107,
  "!": 108,
  "\u2581us": 109,
  "\u2581n\u1ecd": 110,
  ")": 111,
  "\u2581nd\u1ee5": 112,
  "\u2581ebe": 113,
  "\u2581this": 114,
  "\u2581otu": 115,
  "\u2581isi": 116,
  "\u2581were": 117,
  "\u2581iche": 118,
  "\u2581\u1ecdma": 119,
  "\u2581your": 120,
  "\u2581iji": 121,
  "\u2581onwe": 122,
  "\u2581\u1ee5m\u1ee5": 123,
  "\u2581what": 124,
  "\u2581do": 125,
  "\u2581Kra\u1ecbst": 126,
  "\u2581Olee": 127,
  "\u2581af\u1ecd": 128,
  "ime": 129,
  "\u2581\u1ecdt\u1ee5t\u1ee5": 130,
  "\u2581at": 131,
  "\u2581one": 132,
  "\u2581What": 133,
  "\u2581all": 134,
  "\u2581had": 135,
  "\u2581Ma": 136,
  "\u2581nile": 137,
  "ebe": 138,
  "\u2581\u1ee5z\u1ecd": 139,
  "\u2581an": 140,
  "\u2581b\u1ee5la": 141,
  "\u2581people": 142,
  "\u2581kwes\u1ecbr\u1ecb": 143,
  "\u2581O": 144,
  "\u2581In": 145,
  "\u2581him": 146,
  "\u2581them": 147,
  "\u2581mma": 148,
  "\u2581mee": 149,
  "\u2581okwu": 150,
  "\u2581akw\u1ee5kw\u1ecd": 151,
  "\u2581oge": 152,
  "\u2581Na": 153,
  "\u2581about": 154,
  "\u2581Ba\u1ecbb\u1ee5l": 155,
  "\u2581ezi": 156,
  "\u2581so": 157,
  "\u2581niile": 158,
  "\u2581my": 159,
  "\u2581Mgbe": 160,
  "]": 161,
  "oge": 162,
  "\u2581has": 163,
  "\u2581when": 164,
  "\u2581would": 165,
  "\u2581E": 166,
  "\u2581unu": 167,
  "\u2581maka": 168,
  "\u2581\u1ee5f\u1ecdd\u1ee5": 169,
  "\u2581time": 170,
  "\u2581mkpa": 171,
  "ihe": 172,
  "\u2581may": 173,
  "\u2581How": 174,
  "\u2581mm\u1ee5\u1ecd": 175,
  "\u25812": 176,
  "\u2581did": 177,
  "\u2581life": 178,
  "a": 179,
  "\u2581but": 180,
  "\u2581ad\u1ecbgh\u1ecb": 181,
  "\u2581i": 182,
  "\u2581G\u1ecbn\u1ecb": 183,
  "\u2581\u1ee5t\u1ecd": 184,
  "\u1ee5z\u1ecd": 185,
  "\u2581site": 186,
  "\u2581ab\u1ee5\u1ecd": 187,
  "\u2581me": 188,
  "\u2581Any\u1ecb": 189,
  "\u2581enwe": 190,
  "\u2581those": 191,
  "\u2581Ka": 192,
  "anya": 193,
  "\u2581at\u1ee5": 194,
  "\u2581nyere": 195,
  "\u2581ala": 196,
  "\u2581nn\u1ecd\u1ecd": 197,
  "\"": 198,
  "\u2581D\u1ecb": 199,
  "\u2581more": 200,
  "\u2581her": 201,
  "\u2581ekwu": 202,
  "\u2581He": 203,
  "\u2581ruo": 204,
  "\u2581omume": 205,
  "\u2581some": 206,
  "\u2581peeji": 207,
  "\u2581esi": 208,
  "\u2581ch\u1ecdr\u1ecd": 209,
  "\u2581eji": 210,
  "\u2581also": 211,
  "\u2581/": 212,
  "\u2581\u1ee5l\u1ecd": 213,
  "\u2581nwee": 214,
  "\u2581Onye": 215,
  "\u2581out": 216,
  "\u2581been": 217,
  "\u2581nakwa": 218,
  "\u2581how": 219,
  "\u2581Ha": 220,
  "\u2581help": 221,
  "\u2581\u1ee5wa": 222,
  "\u2581such": 223,
  "obi": 224,
  "\u2581dere": 225,
  "\u2581nwa": 226,
  "\u2581aga": 227,
  "\u2581nwunye": 228,
  "\u2581aha": 229,
  "\u2581many": 230,
  "\u2581It": 231,
  "\u2581good": 232,
  "\u2581up": 233,
  "\u2581iri": 234,
  "\u2581\u1ecdn\u1ee5": 235,
  "\u2581Witnesses": 236,
  "\u2581We": 237,
  "\u2581ad\u1ecb": 238,
  "\u2581if": 239,
  "\u2581ah\u00fa": 240,
  "\u2581\u00f2": 241,
  "\u2581eziokwu": 242,
  "\u1ee5wa": 243,
  "\u2581\u1ecdj\u1ecd\u1ecd": 244,
  "\u2581Nd\u1ecb\u00e0m\u00e0": 245,
  "\u2581nsogbu": 246,
  "\u2581enye": 247,
  "\u2581no": 248,
  "ed": 249,
  "\u2581love": 250,
  "aka": 251,
  "\u2581h\u1ee5r\u1ee5": 252,
  "\u25814": 253,
  "\u2581there": 254,
  "\u2581other": 255,
  "\u2581way": 256,
  "\u2581does": 257,
  "\u2581mba": 258,
  "\u2581things": 259,
  "\u2581Nke": 260,
  "\u2581work": 261,
  "\u2581di": 262,
  "ly": 263,
  "\u2581\u1ecbb\u1ee5": 264,
  "\u2581nwoke": 265,
  "\u2581Ot\u00fa": 266,
  "\u2581Paul": 267,
  "otu": 268,
  "\u2581should": 269,
  "\u2581than": 270,
  "\u2581mb\u1ee5": 271,
  "\u2581could": 272,
  "\u2581said": 273,
  "\u2581uche": 274,
  "\u2581page": 275,
  "\u2581even": 276,
  "\u2581M": 277,
  "\u2581uru": 278,
  "\u2581P\u1ecdl": 279,
  "\u2581gwara": 280,
  "\u2581ok\u00e9": 281,
  "\u2581she": 282,
  "b": 283,
  "\u2581make": 284,
  "\u2581\u1ecbd\u1ecb": 285,
  "\u2581When": 286,
  "\u2581world": 287,
  "\u1ee5l\u1ecd": 288,
  "\u2581ns\u1ecd": 289,
  "\u2581wee": 290,
  "\u2581echiche": 291,
  "\u2581ghara": 292,
  "\u2581man": 293,
  "\u2581at\u1ecd": 294,
  "\u2581mmiri": 295,
  "\u2581Ya": 296,
  "\u2581which": 297,
  "\u2581years": 298,
  "\u2581into": 299,
  "\u2581ar\u1ee5": 300,
  "\u2581day": 301,
  "\u2581Christian": 302,
  "\u2581If": 303,
  "\u2581says": 304,
  "\u2581But": 305,
  "\u2581Why": 306,
  "\u2581egosi": 307,
  "\u2581others": 308,
  "\u2581these": 309,
  "\u2581first": 310,
  "\u2581nna": 311,
  "\u2581For": 312,
  "\u2581This": 313,
  "\u2581eto": 314,
  "\u2581children": 315,
  "\u2581ab\u1ee5": 316,
  "\u2581earth": 317,
  "\u2581kp\u1ecdr\u1ecd": 318,
  "\u2581Foto": 319,
  "\u2581Otu": 320,
  "\u2581nye": 321,
  "\u25813": 322,
  "\u258115": 323,
  "\u2581iwu": 324,
  "\u2581ezigbo": 325,
  "ezie": 326,
  "\u2581Christians": 327,
  "\u2581need": 328,
  "\u2581Kingdom": 329,
  "\u2581They": 330,
  "\u2581inwe": 331,
  "\u2581Christ": 332,
  "\u2581\u1ee5d\u1ecb": 333,
  "\u2581nan\u1ecb": 334,
  "\u2581enyere": 335,
  "\u2581ibe": 336,
  "la": 337,
  "d": 338,
  "t": 339,
  "\u2022": 340,
  "...": 341,
  "\u2581family": 342,
  "\u2581*": 343,
  "\u2581only": 344,
  "\u2581nt\u1ecb": 345,
  "\u2581ezin\u1ee5l\u1ecd": 346,
  "\u2581agha": 347,
  "\u2581\u1ee5b\u1ecdch\u1ecb": 348,
  "\u2581because": 349,
  "\u2581b\u1ee5gh\u1ecb": 350,
  "\u2581ebi": 351,
  "\u2581ukwuu": 352,
  "\u2581spirit": 353,
  "\u2581agagh\u1ecb": 354,
  "-": 355,
  "\u2581example": 356,
  "\u2581You": 357,
  "af\u1ecd": 358,
  "n": 359,
  "\u2581\u1ecdh\u1ee5r\u1ee5": 360,
  "\u2581eso": 361,
  "\u2581ego": 362,
  "kwa": 363,
  "\u2581see": 364,
  "\u2581made": 365,
  "\u2581As": 366,
  "\u2581jiri": 367,
  "\u2581Ebe": 368,
  "\u2581ole": 369,
  "\u2581nne": 370,
  "\u2581faith": 371,
  "the": 372,
  "\u2581being": 373,
  "agbanyegh\u1ecb": 374,
  "\u2581Alaeze": 375,
  "\u2581enwegh\u1ecb": 376,
  "\u2581mara": 377,
  "\u2581\u00e0gw\u00e0": 378,
  "\u2581must": 379,
  "\u25815": 380,
  "\u2581\u1ecdr\u1ecba": 381,
  "\u2581bi": 382,
  "\u2581like": 383,
  "\u2581over": 384,
  "A": 385,
  "\u2581then": 386,
  "\u2581ekpere": 387,
  "\u2581true": 388,
  "\u2581an\u1ecd": 389,
  "\u2581ach\u1ecd": 390,
  "\u2581know": 391,
  "\u2581\u1ecdk\u1ee5": 392,
  "\u258111": 393,
  "\u2581Akw\u1ee5kw\u1ecd": 394,
  "\u25816": 395,
  "\u2581spiritual": 396,
  "\u2581nar\u1ecb": 397,
  "\u2581congregation": 398,
  "\u25818": 399,
  "\u2581gara": 400,
  "\u2581d\u1ecbgh\u1ecb": 401,
  "\u2581well": 402,
  "\u2581take": 403,
  "ala": 404,
  "\u2581Izrel": 405,
  "\u2581p\u1ee5tara": 406,
  "\u2581_": 407,
  "\u2581mkp\u1ee5r\u1ee5": 408,
  "\u2581just": 409,
  "\u2581heart": 410,
  "\u2581%": 411,
  "\u2581egwu": 412,
  "\u2581gaa": 413,
  "\u2581ab\u1ee5gh\u1ecb": 414,
  "\u2581nwaany\u1ecb": 415,
  "\u2581enyi": 416,
  "\u2581ume": 417,
  "\u2581become": 418,
  "\u2581come": 419,
  "\u2581maara": 420,
  "\u2581okwukwe": 421,
  "\u2581own": 422,
  "\u2581its": 423,
  "\u2581words": 424,
  "\u2581before": 425,
  "\u2581\u1ee5m\u1ee5nna": 426,
  "\u2581parents": 427,
  "\u2581eche": 428,
  "\u2581\u00d2": 429,
  "\u2581s\u1ecbr\u1ecb": 430,
  "\u2581g\u1ecbn\u1ecb": 431,
  "\u2581ama": 432,
  "\u2581name": 433,
  "\u2581agba": 434,
  "\u2581kwere": 435,
  "\u2581\u1ecbna": 436,
  "\u2581ugbu": 437,
  "\u2581obodo": 438,
  "kwara": 439,
  "\u2581Ns\u1ecd": 440,
  "\u2581death": 441,
  "\u2581ones": 442,
  "\u2581two": 443,
  "\u2581kama": 444,
  "\u2581new": 445,
  "\u2581after": 446,
  "\u2581an\u1ee5": 447,
  "\u2581Picture": 448,
  "\u2581ikpe": 449,
  "\u2581m\u1ee5": 450,
  "\u2581nri": 451,
  "\u2581nwany\u1ecb": 452,
  "\u2581John": 453,
  "\u2581taa": 454,
  "\u2581any": 455,
  "\u2581might": 456,
  "\u2581naan\u1ecb": 457,
  "\u2581h\u1ee5": 458,
  "\u2581okpukpe": 459,
  "\u2581tupu": 460,
  "\u2581And": 461,
  "\u2581That": 462,
  "\u2581\u1ecbh\u1ee5nanya": 463,
  "\u2581\u1ecdch\u1ecbch\u1ecb": 464,
  "\u2581\u1eca": 465,
  "e": 466,
  "\u2581person": 467,
  "\u2581now": 468,
  "\u2581ohu": 469,
  "\u2581anagh\u1ecb": 470,
  "\u258113": 471,
  "\u2581aj\u1ee5j\u1ee5": 472,
  "\u2581Okwu": 473,
  "\u2581ak\u1ee5k\u1ecd": 474,
  "I": 475,
  "\u2581another": 476,
  "\u2581men": 477,
  "\u2581elu": 478,
  "\u0300": 479,
  "\u2581yiri": 480,
  "ihu": 481,
  "\u25811,": 482,
  "\u2581malitere": 483,
  "\u2581m\u1ee5r\u1ee5": 484,
  "\u2581gbara": 485,
  "\u2581give": 486,
  "\u2581much": 487,
  "\u2581gosiri": 488,
  "\u258114": 489,
  "E": 490,
  "\u2581very": 491,
  "\u2581iwe": 492,
  "\u2581David": 493,
  "\u2581efe": 494,
  "\u2581feel": 495,
  "\u2581\u1ecbh\u1ee5": 496,
  "\u2581times": 497,
  "\u2581To": 498,
  "\u2581Word": 499,
  "\u2581kwuo": 500,
  "\u2581\u1eccma": 501,
  "\u2581through": 502,
  "\u2581study": 503,
  "\u2581kar\u1ecba": 504,
  "\u2581found": 505,
  "\u2581Obi": 506,
  "\u2581truth": 507,
  "\u2581use": 508,
  "\u2581mmehie": 509,
  "\u2581where": 510,
  "\u2581find": 511,
  "\u2581most": 512,
  "\u2581young": 513,
  "\u2581today": 514,
  "n\u1ee5": 515,
  "\u2581ochie": 516,
  "re": 517,
  "\u2581kwa": 518,
  "\u2581am\u1ee5ma": 519,
  "\u2581\u00f9gw\u00f9": 520,
  "\u2581b\u1ecbara": 521,
  "\u2581Israel": 522,
  "\u2581Devid": 523,
  "\u2581mmas\u1ecb": 524,
  "\u2581Setan": 525,
  "\u2581So": 526,
  "\u2581nso": 527,
  "\u2581nw\u1ee5r\u1ee5": 528,
  "\u2581each": 529,
  "\u258110": 530,
  "\u2581Do": 531,
  "ra": 532,
  "\u1ecdgbak\u1ecd": 533,
  "\u2581say": 534,
  "\u258120": 535,
  "\u2581bu": 536,
  "\u2581home": 537,
  "\u258116": 538,
  "\u2581\u1ecdnw\u1ee5": 539,
  "\u2581One": 540,
  "\u2581\u1ecct\u1ee5t\u1ee5": 541,
  "\u2581\u1ecbga": 542,
  "\u2581However": 543,
  "\u2581ele": 544,
  "gh\u1ecb": 545,
  "\u2581part": 546,
  "\u2581J\u1ecdn": 547,
  "\u2581ebigh\u1ecb": 548,
  "\u2581nt\u1ee5kwas\u1ecb": 549,
  "\u2581eze": 550,
  "\u2581kar\u1ecbr\u1ecb": 551,
  "\u2581Satan": 552,
  "\u2581ikwu": 553,
  "\u2581show": 554,
  "\u2581used": 555,
  "\u2581too": 556,
  "\u2581brothers": 557,
  "\u2581ag\u1ee5": 558,
  "\u2581apostle": 559,
  "\u2581as\u1ecb": 560,
  "\u2581\u1ecdn\u1ecdd\u1ee5": 561,
  "\u2581\u1ecdgbak\u1ecd": 562,
  "\u2581learn": 563,
  "\u2581himself": 564,
  "\u2581doro": 565,
  "\u2581put": 566,
  "\u2581great": 567,
  "\u2581against": 568,
  "\u2581human": 569,
  "\u2581kas\u1ecb": 570,
  "etiti": 571,
  "\u2581G\u1ecb": 572,
  "\u2581book": 573,
  "\u2581\"%": 574,
  "\u2581nkwa": 575,
  "\u2581same": 576,
  "\u2581Some": 577,
  "\u2581keep": 578,
  "\u258117": 579,
  "\u2581year": 580,
  "\u2581agwa": 581,
  "\u2581ibu": 582,
  "\u2581obere": 583,
  "\u1ecdr\u1ee5": 584,
  "\u2581ekwe": 585,
  "\u2581\u00cc": 586,
  "\u2581ok\u00e8": 587,
  "\u2581onyeozi": 588,
  "\u2581akpa": 589,
  "\u2581siri": 590,
  "akw\u1ee5kw\u1ecd": 591,
  "\u2581am\u1ee5": 592,
  "\u2581ofufe": 593,
  "\u2581never": 594,
  "\u2581Rom": 595,
  "\u2581anw\u1ee5": 596,
  "\u2581Job": 597,
  "\u2581why": 598,
  "\u2581right": 599,
  "\u2581\u1ecdm\u1ee5ma": 600,
  "\u2581means": 601,
  "\u2581ekwes\u1ecb": 602,
  "\u2581\u1ecdm\u1ee5m\u1ee5": 603,
  "\u2581long": 604,
  "\u2581though": 605,
  "\u2581nta": 606,
  "\u2581wrote": 607,
  "\u25aa": 608,
  "\u2581okenye": 609,
  "\u2581akp\u1ecd": 610,
  "\u2581often": 611,
  "\u2581buru": 612,
  "\u2581Father": 613,
  "\u2581zuru": 614,
  "\u2581Peter": 615,
  "\u2581want": 616,
  "\u2581d\u1ecbr\u1ecb": 617,
  "\u2581ach\u1ecb": 618,
  "\u2581important": 619,
  "\u2581Pita": 620,
  "S": 621,
  "\u2581chere": 622,
  "\u2581Adam": 623,
  "\u2581get": 624,
  "\u258122": 625,
  "\u2581end": 626,
  "\u2581Nna": 627,
  "\u2581\u1ecdb\u1ee5na": 628,
  "\u2581At": 629,
  "\u2581set": 630,
  "\u2581read": 631,
  "obodo": 632,
  "\u2581worship": 633,
  "\u2581ziri": 634,
  "\u2581Is": 635,
  "\u2581under": 636,
  "\u2581puku": 637,
  "\u2581ugboro": 638,
  "\u25813:": 639,
  "\u2581place": 640,
  "\u258112": 641,
  "eziokwu": 642,
  "\u2581\u1eccr\u1ee5": 643,
  "\u2581nwekwara": 644,
  "\u2581ihu": 645,
  "\u2581view": 646,
  "\u2581After": 647,
  "\u258118": 648,
  "\u2581She": 649,
  "\u2581gbasara": 650,
  "\u2581ise": 651,
  "\u2581go": 652,
  "\u2581course": 653,
  "\u2581nwegh\u1ecb": 654,
  "\u2581az\u1ee5": 655,
  "\u2581C": 656,
  "\u1ecc": 657,
  "\u2581Isi": 658,
  "\u2581ngwa": 659,
  "\u2581New": 660,
  "\u2581\u1ee4l\u1ecd": 661,
  "elu": 662,
  "\u2581\u1ee5m\u1ee5aka": 663,
  "\u2581became": 664,
  "\u2581wife": 665,
  "\u2581gwa": 666,
  "\u2581ezie": 667,
  "\u2581word": 668,
  "okwu": 669,
  "\u2581every": 670,
  "\u2581ministry": 671,
  "\u2581Eze": 672,
  "\u2581faithful": 673,
  "\u258121": 674,
  "y": 675,
  "\u2581Juu": 676,
  "\u2581came": 677,
  "\u2581gosi": 678,
  "\u2581upon": 679,
  "\u2581kere": 680,
  "\u2581let": 681,
  "\u2581back": 682,
  "\u2581ah\u1ee5h\u1ee5": 683,
  "\u2581mman\u1ee5": 684,
  "\u258119": 685,
  "\u2581h\u00e0": 686,
  "\u2581\u1ecdcha": 687,
  "\u2581news": 688,
  "\u2581away": 689,
  "\u2581down": 690,
  "\u2581mind": 691,
  "inyere": 692,
  "_": 693,
  "\u2581inweta": 694,
  "\u2581olileanya": 695,
  "\u2581told": 696,
  "\u2581nj\u1ecd": 697,
  "\u2581among": 698,
  "\u2581at\u1ee5r\u1ee5": 699,
  "\u2581later": 700,
  "\u2581b\u1ecba": 701,
  "\u25812.": 702,
  "\u2581days": 703,
  "\u2581Ab\u1ee5": 704,
  "\u258112:": 705,
  "\u2581\u1ecd\u1e45\u1ee5": 706,
  "\u2581enweta": 707,
  "\u2581live": 708,
  "\u2581ikike": 709,
  "\u2581mfe": 710,
  "\u2581hope": 711,
  "\u2581By": 712,
  "\u2581\u1ecds\u1ecd": 713,
  "\u2581\u1ecdgw\u1ee5": 714,
  "\u25814.": 715,
  "\u2581called": 716,
  "\u2581eluigwe": 717,
  "\u2581during": 718,
  "\u2581There": 719,
  "\u2581began": 720,
  "\u2581eje": 721,
  "\u2581Jis\u1ecds": 722,
  "\u2581inye": 723,
  "\u2581aghagh\u1ecb": 724,
  "\u2581j\u1ee5r\u1ee5": 725,
  "\u2581old": 726,
  "\u2581gagh\u1ecb": 727,
  "\u2581On": 728,
  "\u2581holy": 729,
  "\u2581child": 730,
  "\u2581preaching": 731,
  "\u2581am": 732,
  "\u2581knowledge": 733,
  "\u2581still": 734,
  "\u2581Ga": 735,
  "\u2581serve": 736,
  "\u2581\u00f2t\u00f9": 737,
  "\u2581ah\u1ecba": 738,
  "\u2581as\u1ee5s\u1ee5": 739,
  "\u258110.": 740,
  "\u2581mmet\u1ee5ta": 741,
  "\u2581nweta": 742,
  "\u25817": 743,
  "\u2581consider": 744,
  "\u2581given": 745,
  "\u2581Matiu": 746,
  "\u2581ab\u1ecba": 747,
  "\u2581Scriptures": 748,
  "\u2581akpata": 749,
  "\u2581eru": 750,
  "\u2581Psalm": 751,
  "\u2581Matthew": 752,
  "\u2581bara": 753,
  "\u2581osisi": 754,
  "\u2581three": 755,
  "\u2581ways": 756,
  "\u2581nzuk\u1ecd": 757,
  "\u1ecd": 758,
  "\u2581With": 759,
  "\u2581service": 760,
  "\u2581father": 761,
  "ah\u00fa": 762,
  "\u2581No": 763,
  "\u2581ekpe": 764,
  "\u2581Kama": 765,
  "\u2581however": 766,
  "\u2581disciples": 767,
  "\u2581ije": 768,
  "\u2581Our": 769,
  "\u2581ekwes\u1ecbgh\u1ecb": 770,
  "\u25819": 771,
  "\u2581themselves": 772,
  "\u2581\u1ee4f\u1ecdd\u1ee5": 773,
  "eluigwe": 774,
  "\u2581doing": 775,
  "\u2581gave": 776,
  "\u2581nd\u1ee5m\u1ecdd\u1ee5": 777,
  "\u258125": 778,
  "\u2581marriage": 779,
  "\u2581r\u1ee5r\u1ee5": 780,
  "\u2581power": 781,
  "ara": 782,
  "\u2581without": 783,
  "\u258114.": 784,
  "\u2581amamihe": 785,
  "\u2581living": 786,
  "\u2581century": 787,
  "\u2581able": 788,
  "\u258112.": 789,
  "\u2581while": 790,
  "\u25817.": 791,
  "\u2581fact": 792,
  "\u2581making": 793,
  "\u2581b\u1ee5kwa": 794,
  "The": 795,
  "\u2581\u1ee5gha": 796,
  "\u0301": 797,
  "\u2581Mmad\u1ee5": 798,
  "\u2581both": 799,
  "\u1ecdn\u1ee5": 800,
  "\u2581always": 801,
  "\u25815:": 802,
  "\u2581aj\u1ecd": 803,
  "\u2581B": 804,
  "\u25818.": 805,
  "\u25815.": 806,
  "\u2581Many": 807,
  "\u2581peace": 808,
  "\u2581His": 809,
  "\u2581baptizim": 810,
  "\u258111.": 811,
  "\u2581isiokwu": 812,
  "\u258113.": 813,
  "\u2581think": 814,
  "\u2581King": 815,
  "),": 816,
  "\u2581\u00ecgw\u00e8": 817,
  "\u1ecdnw\u1ee5": 818,
  "\u2581result": 819,
  "\u2581sitere": 820,
  "\u2581bring": 821,
  "\u2581ak\u1ee5k\u1ee5": 822,
  "\u2581article": 823,
  "na": 824,
  "\u25816:": 825,
  "\u2581loving": 826,
  "\u2581mother": 827,
  "m": 828,
  "\u2581whom": 829,
  "\u25819.": 830,
  "\u2581ebube": 831,
  "\u25817:": 832,
  "\u2581United": 833,
  "\u2581malite": 834,
  "\u2581P": 835,
  "\u2581\u1ecbma": 836,
  "\u2581a\u1e45aa": 837,
  "\u2581Iji": 838,
  "\u2581personal": 839,
  "\u2581reason": 840,
  "\u2581\u1ee5kp\u1ee5r\u1ee5": 841,
  "\u2581between": 842,
  "\u2581order": 843,
  "\u2581Daniel": 844,
  "\u1ee5b\u1ecdch\u1ecb": 845,
  "\u258116.": 846,
  "\u2581Then": 847,
  "\u2581asked": 848,
  "\u2581Yes": 849,
  "\u258115.": 850,
  "\u2581\u00f3k\u00e8": 851,
  "\u2581took": 852,
  "\u2581humans": 853,
  "\u2581full": 854,
  "\u2581Even": 855,
  "\u2581house": 856,
  "ozi": 857,
  "\u258117.": 858,
  "\u2581p\u1ee5ta": 859,
  "\u2581ekwusa": 860,
  "\u2581something": 861,
  "\u2581hand": 862,
  "\u258115,": 863,
  "\u2581purpose": 864,
  "\u2581Si": 865,
  "\u2581really": 866,
  "\u2581\u00e0m\u00e0": 867,
  "\u2581dum": 868,
  "O": 869,
  "\u2581Mozis": 870,
  "\u2581son": 871,
  "\u2581fellow": 872,
  "\u2581amagh\u1ecb": 873,
  "\u2581Hibru": 874,
  "\u2581From": 875,
  "\u2581T": 876,
  "\u2581someone": 877,
  "\u2581\u1ecdg\u1ee5g\u1ee5": 878,
  "\u2581Yet": 879,
  "\u2581ana": 880,
  "\u2581ak\u1ecd": 881,
  "\u2581mankind": 882,
  "\u2581servants": 883,
  "isi": 884,
  "\u2581woman": 885,
  "\u2581iso": 886,
  "\u2581questions": 887,
  "\u25816.": 888,
  "\u2581\u1ecbr\u1ee5": 889,
  "\u2581\u1ecbgba": 890,
  "\u2581My": 891,
  "\u2581olee": 892,
  "er": 893,
  "\u2581nwanna": 894,
  "M": 895,
  "\u2581W": 896,
  "\u2581kacha": 897,
  "\u2581udo": 898,
  "\u2581husband": 899,
  "\u2581prayer": 900,
  "\u25813.": 901,
  "\u2581future": 902,
  "\u2581mm\u1ee5ta": 903,
  "\u2581Ilu": 904,
  "\u2581Jerusalem": 905,
  "\u2581Ike": 906,
  "\u2581\u00ech\u00e8": 907,
  "\u2581ohere": 908,
  "\u2581having": 909,
  "\u2581number": 910,
  "\u2581onyinye": 911,
  "\u2581cannot": 912,
  "\u2581learned": 913,
  "\u2581Lee": 914,
  "\u2581together": 915,
  "\u2581mata": 916,
  "\u2581friends": 917,
  "\u2581toward": 918,
  "\u2581helped": 919,
  "\u2581look": 920,
  "\u2581aj\u1ee5": 921,
  "\u2581ak\u1ee5ziri": 922,
  "\u2581k\u1ecdr\u1ecd": 923,
  "\u2581nway\u1ecd\u1ecd": 924,
  "\u2581food": 925,
  "\u2581umeala": 926,
  "\u2581Site": 927,
  "\u2581mkp\u1ecdr\u1ecd": 928,
  "\u2581religious": 929,
  "\u2581Son": 930,
  "\u2581felt": 931,
  "\u2581following": 932,
  "\u2581\u1ee5gb\u1ecd": 933,
  "N": 934,
  "\u2581experience": 935,
  "\u2581hard": 936,
  "\u2581joy": 937,
  "\u2581Moses": 938,
  "\u2581biri": 939,
  "ike": 940,
  "\u00e1": 941,
  "al": 942,
  "ak\u1ee5k\u1ee5": 943,
  "\u2581uwe": 944,
  "\u2581kw\u1ee5s\u1ecb": 945,
  "okpuru": 946,
  "\u2581mmek\u1ecdah\u1ee5": 947,
  "\u2581\u1ee5gw\u1ecd": 948,
  "\u2581ekele": 949,
  "\u2581nde": 950,
  "isiokwu": 951,
  "\u2581brother": 952,
  "\u2581nzube": 953,
  "\u2581States": 954,
  "\u2581few": 955,
  "\u2581obibi": 956,
  "\u2581little": 957,
  "\u2581Samuel": 958,
  "\u2581relationship": 959,
  "\u2581face": 960,
  "\u2581nkwusa": 961,
  "\u2581isii": 962,
  "\u2581left": 963,
  "\u2581meetings": 964,
  "\u2581Abraham": 965,
  "\u2581care": 966,
  "\u2581usoro": 967,
  "\u2581akpali": 968,
  "\u2581city": 969,
  "\u2581again": 970,
  "\u2581free": 971,
  "\u2581sin": 972,
  "\u258128": 973,
  "\u25818,": 974,
  "\u2581Proverbs": 975,
  "\u2581nnukwu": 976,
  "\u2581best": 977,
  "\u2581elek\u1ecdta": 978,
  "\u2581\u1ee4wa": 979,
  "\u2581D": 980,
  "\u2581close": 981,
  "\u1ee5r\u1ee5": 982,
  "\u2581problems": 983,
  "\u2581Isaiah": 984,
  "\u2581kweere": 985,
  "\u2581\u1ecdbara": 986,
  "\u2581met\u1ee5tara": 987,
  "\u2581emekwa": 988,
  "\u2581happy": 989,
  "\u2581asaa": 990,
  "\u258130": 991,
  "\u2581yourself": 992,
  "\u2581\u1ecdch\u1ecbch\u1ecd": 993,
  "\u2581\u1ecdk\u00e0": 994,
  "\u2581support": 995,
  "\u2581ch\u1ecd\u1ecd": 996,
  "\u2581needed": 997,
  "\u2581Ee": 998,
  "\u2581ask": 999,
  "\u2581possible": 1000,
  "\u2581better": 1001,
  "\u258118.": 1002,
  "\u2581ruru": 1003,
  "\u2581obi\u1ecdma": 1004,
  "\u2581women": 1005,
  "\u2581NA": 1006,
  "\u2581language": 1007,
  "\u2581heaven": 1008,
  "\u2581World": 1009,
  "\u2581All": 1010,
  "\u2581\u1ecdnwa": 1011,
  "\u258123": 1012,
  "\u2581d\u1ecbkwa": 1013,
  "\u2581understand": 1014,
  "\u2581izu": 1015,
  "\u2581known": 1016,
  "\u2581ever": 1017,
  "\u2581wicked": 1018,
  "\u2581Let": 1019,
  "\u2581ND\u1eca": 1020,
  "\u2581S": 1021,
  "k\u00f9": 1022,
  "\u2581Your": 1023,
  "\u2581different": 1024,
  "\u2581wisdom": 1025,
  "\u2581ezu": 1026,
  "\u2581b\u1ee5kwan\u1ee5": 1027,
  "\u2581mechara": 1028,
  "\u2581lives": 1029,
  "\u2581school": 1030,
  "\u2581ikpeaz\u1ee5": 1031,
  "\u2581nk\u1ecbt\u1ecb": 1032,
  "\u2581avoid": 1033,
  "\u2581These": 1034,
  "\u2581mb\u1ecd": 1035,
  "\u2581ag\u1ee5\u1ee5": 1036,
  "\u2581done": 1037,
  "\u2581ejere": 1038,
  "\u2581eyes": 1039,
  "\u2581\u1ecbgh\u1ecdta": 1040,
  "\u2581Israelites": 1041,
  "\u2581matter": 1042,
  "\u25813,": 1043,
  "\u2581off": 1044,
  "ther": 1045,
  "\u2581ukwu": 1046,
  "\u2581ak\u1ee5zi": 1047,
  "\u2581ap\u1ee5gh\u1ecb": 1048,
  "\u2581\u1ecbm\u1ee5ta": 1049,
  "\u2581mmanya": 1050,
  "\u2581age": 1051,
  "\u2581counsel": 1052,
  "\u2581last": 1053,
  "\u2581share": 1054,
  "\u2581gburugburu": 1055,
  "\u2581water": 1056,
  "\u2581message": 1057,
  "\u2581mgbak\u1ecd": 1058,
  "\u258126": 1059,
  "\u2581Luk": 1060,
  "\u2581tere": 1061,
  "o": 1062,
  "\u2581bad": 1063,
  "\u2581Consider": 1064,
  "\u1ecdn\u1ecdd\u1ee5": 1065,
  "\u2581anointed": 1066,
  "\u2581self": 1067,
  "onwe": 1068,
  "\u2581Can": 1069,
  "\u2581t\u1ee5r\u1ee5": 1070,
  "ezi": 1071,
  "as\u1ee5s\u1ee5": 1072,
  "\u2581near": 1073,
  "\u2581states": 1074,
  "\u2581continue": 1075,
  "\u2581eri": 1076,
  "\u2581\u00e0j\u00e0": 1077,
  "\u2581Ime": 1078,
  "\u2581believe": 1079,
  "\u2581answer": 1080,
  "\u2581money": 1081,
  "\u2581fear": 1082,
  "\u2581went": 1083,
  "\u2581benefit": 1084,
  "\u2581ogologo": 1085,
  "\u2581\u1ee5ka": 1086,
  "C": 1087,
  "\u2581desire": 1088,
  "\u2581feelings": 1089,
  "\u2581Timothy": 1090,
  "\u2581teaching": 1091,
  "\u2581mes\u1ecbr\u1ecb": 1092,
  "\u2581far": 1093,
  "\u2581G\u1ee5\u1ecd": 1094,
  "\u2581kemgbe": 1095,
  "\u2581mmalite": 1096,
  "\u2581nyeere": 1097,
  "th": 1098,
  "\u2581Timoti": 1099,
  "\u2581early": 1100,
  "\u2581n\u1ecdr\u1ecd": 1101,
  "\u2581thought": 1102,
  "\u2581\u1ecbmata": 1103,
  "\u258119.": 1104,
  "\u2581am\u1ee5ta": 1105,
  "\u2581mkpebi": 1106,
  "\u2581since": 1107,
  "\u2581Jeruselem": 1108,
  "\u2581enjoy": 1109,
  "\u25819,": 1110,
  "woro": 1111,
  "\u2581ebere": 1112,
  "\u2581sense": 1113,
  "\u2581certain": 1114,
  "\u2581situation": 1115,
  "\u2581\u1ee5kw\u1ee5": 1116,
  "\u2581Luke": 1117,
  "\u2581soro": 1118,
  "\u2581ourselves": 1119,
  "\u2581\u1ecckpara": 1120,
  "\u2581gh\u1ecdta": 1121,
  "\u2581dee": 1122,
  "\u2581echeta": 1123,
  "\u2581moved": 1124,
  "Akw\u1ee5kw\u1ecd": 1125,
  "\u2581conduct": 1126,
  "\u2581wise": 1127,
  "\u2581ch\u1ecd\u1ecdch\u1ecb": 1128,
  "\u2581heavenly": 1129,
  "\u2581mama": 1130,
  "\u2581egbu": 1131,
  "\u2581Iwu": 1132,
  "\u2581present": 1133,
  "\u2581members": 1134,
  "\u2581likely": 1135,
  "\u25819:": 1136,
  "\u2581next": 1137,
  "\u2581ozugbo": 1138,
  "\u2581received": 1139,
  "\u2581windo": 1140,
  "\u2581account": 1141,
  "\u2581ancient": 1142,
  "\u2581king": 1143,
  "\u2581nations": 1144,
  "\u2581talk": 1145,
  "\u2581Although": 1146,
  "\u2581respect": 1147,
  "\u25816,": 1148,
  "\u2581system": 1149,
  "\u2581ak\u1ecdwa": 1150,
  "\u2581fine": 1151,
  "\u2581giving": 1152,
  "\u2581n\u1ecdgide": 1153,
  "\u2581elders": 1154,
  "\u2581information": 1155,
  "\u2581righteous": 1156,
  "\u2581\u1ecdha": 1157,
  "\u2581fa\u1ecbl\u1ee5": 1158,
  "\u2581health": 1159,
  "\u2581speak": 1160,
  "\u2581sure": 1161,
  "\u258124:": 1162,
  "\u2581baptized": 1163,
  "\u2581serving": 1164,
  "\u2581difficult": 1165,
  "\u2581Because": 1166,
  "\u2581enyemaka": 1167,
  "\u2581nlereanya": 1168,
  "uche": 1169,
  "\u2581around": 1170,
  "\u2581Does": 1171,
  "\u2581kind": 1172,
  "\u2581needs": 1173,
  "\u2581gh\u1ecd\u1ecd": 1174,
  "\u25815,": 1175,
  "\u2581mean": 1176,
  "\u2581nor": 1177,
  "\u2581mmek\u1ecdr\u1ecbta": 1178,
  "\u2581ata": 1179,
  "\u2581attention": 1180,
  "\u2581saw": 1181,
  "\u2581IHE": 1182,
  "\u2581cause": 1183,
  "\u2581James": 1184,
  "\u2581g\u1ee5nyere": 1185,
  "\u2581law": 1186,
  "gburu": 1187,
  "\u2581ch\u1ecdp\u1ee5tara": 1188,
  "\u2581change": 1189,
  "t\u00f9": 1190,
  "\u2581nk\u00e0": 1191,
  "\u2581nwanne": 1192,
  "r\u1ecb": 1193,
  "\u2581high": 1194,
  "\u2581real": 1195,
  "\u2581Of": 1196,
  "\u2581especially": 1197,
  "\u2581f\u1ecdr\u1ecd": 1198,
  "....": 1199,
  "\u2581Acts": 1200,
  "\u2581Who": 1201,
  "\u2581\u1ecbn\u1ee5": 1202,
  "\u2581including": 1203,
  "\u2581reading": 1204,
  "\u258120.": 1205,
  "\u2581akwado": 1206,
  "\u2581knew": 1207,
  "\u2581point": 1208,
  "\u2581along": 1209,
  "\u2581case": 1210,
  "\u2581thus": 1211,
  "\u2581Maka": 1212,
  "\u2581saying": 1213,
  "\u2581agadi": 1214,
  "\u2581\u1ecbm\u1ee5": 1215,
  "\u1ecdt\u1ee5t\u1ee5": 1216,
  "\u2581Those": 1217,
  "\u2581land": 1218,
  "\u2581principles": 1219,
  "\u2581\u1ee5j\u1ecd": 1220,
  "\u2581until": 1221,
  "\u2581Are": 1222,
  "\u2581Law": 1223,
  "\u2581lead": 1224,
  "\u2581body": 1225,
  "\u2581Nd\u1ee5": 1226,
  "\u2581receive": 1227,
  "\u2581wrong": 1228,
  "\u2581ikom": 1229,
  "\u2581U": 1230,
  "nd\u1ecb": 1231,
  "\u2581yet": 1232,
  "\u2581k\u1ecdwara": 1233,
  "\u258131": 1234,
  "\u2581Be": 1235,
  "\u2581Watchtower": 1236,
  "\u2581odide": 1237,
  "\u2581sie": 1238,
  "\u2581Thus": 1239,
  "\u258124": 1240,
  "\u2581question": 1241,
  "\u2581\u1ee5gb\u1ecdala": 1242,
  "\u2581Greek": 1243,
  "\u2581died": 1244,
  "G\u1ee5\u1ecd": 1245,
  "\u2581blood": 1246,
  "\u2581ize": 1247,
  "\u2581ugwu": 1248,
  "\u2581trust": 1249,
  "\u2581soon": 1250,
  "\u2581Footnote": 1251,
  "\u2581Ebreham": 1252,
  "\u2581makes": 1253,
  "\u2581Corinthians": 1254,
  "\u2581Ozi": 1255,
  "\u2581THE": 1256,
  "\u2581act": 1257,
  "\u2581Lord": 1258,
  "\u2581emere": 1259,
  "\u2581group": 1260,
  "\u2581follow": 1261,
  "\u2581going": 1262,
  "\u2581chi": 1263,
  "\u2581njikere": 1264,
  "\u2581brought": 1265,
  "\u2581wanted": 1266,
  "\u2581p\u1ee5\u1ecd": 1267,
  "\u2581kindness": 1268,
  "\u2581turn": 1269,
  "\u2581provide": 1270,
  "\u2581dead": 1271,
  "\u2581Onyenwe": 1272,
  "\u2581attitude": 1273,
  "\u2581mgbal\u1ecb": 1274,
  "\u258114,": 1275,
  "\u2581amas\u1ecb": 1276,
  "\u2581married": 1277,
  "\u2581abara": 1278,
  "c": 1279,
  "st": 1280,
  "iwu": 1281,
  "\u2581People": 1282,
  "\u25814,": 1283,
  "\u2581al\u1ee5": 1284,
  "\u2581suffering": 1285,
  "\u2581iko": 1286,
  "\u2581\u1ecbn\u1ecdgide": 1287,
  "\u2581thinking": 1288,
  "\u2581iro": 1289,
  "\u2581m\u1ee5tara": 1290,
  "\u2581Nche": 1291,
  "kwu": 1292,
  "\u2581Pictures": 1293,
  "l": 1294,
  "\u2581\u1ecbg\u1ee5": 1295,
  "r": 1296,
  "\u258133": 1297,
  "\u2581small": 1298,
  "Read": 1299,
  "\u1ee4l\u1ecd": 1300,
  "\u2581Such": 1301,
  "\u2581ozizi": 1302,
  "\u2581agb\u1ecdgh\u1ecd": 1303,
  "\u2581religion": 1304,
  "hile": 1305,
  "\u2581whole": 1306,
  "\u2581allow": 1307,
  "\u2581B\u1ee5": 1308,
  "\u2581\u1ee5ra": 1309,
  "\u2581Jews": 1310,
  "\u2581Since": 1311,
  "\u2581followers": 1312,
  "\u2581Not": 1313,
  "\u2581\u1ecbn\u1ecd": 1314,
  "\u2581prophet": 1315,
  "\u2581kpatara": 1316,
  "\u2581asat\u1ecd": 1317,
  "\u2581remain": 1318,
  "d\u1ecb": 1319,
  "\u2581try": 1320,
  "\u2581taught": 1321,
  "\u2581individuals": 1322,
  "zi": 1323,
  "\u2581NKE": 1324,
  "\u2581happiness": 1325,
  "\u2581Joseph": 1326,
  "\u2581gbaa": 1327,
  "\u2581local": 1328,
  "\u2581ngw": 1329,
  "\u2581njem": 1330,
  "in": 1331,
  "\u2581control": 1332,
  "\u2581Creator": 1333,
  "\u258121.": 1334,
  "\u2581kp\u1ecdmkwem": 1335,
  "\u2581kwukwara": 1336,
  "\u2581special": 1337,
  "\u2581taking": 1338,
  "\u2581teach": 1339,
  "\u2581pray": 1340,
  "\u2581lee": 1341,
  "\u2581awa": 1342,
  "\u2581open": 1343,
  "\u2581ede": 1344,
  "\u258127": 1345,
  "\u2581nothing": 1346,
  "\u2581war": 1347,
  "\u2581whe": 1348,
  "\u2581\u1ee4m\u1ee5": 1349,
  "\u2581Solomon": 1350,
  "\u2581etinye": 1351,
  "\u2581sent": 1352,
  "ri": 1353,
  "\u2581strong": 1354,
  "\u258111,": 1355,
  "\u2581\u1ecdg\u1ee5": 1356,
  "\u258140": 1357,
  "i": 1358,
  "\u2581n\u1ee5r\u1ee5": 1359,
  "\u2581oriri": 1360,
  "\u2581\u1ecbgwa": 1361,
  "\u2581\u1ecdz\u1ee5z\u1ee5": 1362,
  "\u2581already": 1363,
  "Ihe": 1364,
  "wo": 1365,
  "\u2581Nzuk\u1ecd": 1366,
  "\u2581Romans": 1367,
  "\u2581kar\u1ecb": 1368,
  "\u2581nation": 1369,
  "\u2581night": 1370,
  "\u258129": 1371,
  "\u2581Read": 1372,
  "\u2581\u00edgw\u00e8": 1373,
  "\u2581involved": 1374,
  "kwan\u1ee5": 1375,
  "\u2581four": 1376,
  "\u2581papa": 1377,
  "\u258110,": 1378,
  "ere": 1379,
  "\u2581tinyere": 1380,
  "\u2581Mere": 1381,
  "\u2581gas\u1ecbr\u1ecb": 1382,
  "\u2581matters": 1383,
  "\u2581nd\u1ecdr\u1ecd": 1384,
  "\u2581ogbenye": 1385,
  "ezin\u1ee5l\u1ecd": 1386,
  "\u2581mentioned": 1387,
  "\u2581thing": 1388,
  "\u2581t\u1ee5lee": 1389,
  "\u2581gh\u1ecdtara": 1390,
  "\u2581large": 1391,
  "\u2581light": 1392,
  "\u2581Oge": 1393,
  "\u2581works": 1394,
  "\u2581n\u1ecdgidere": 1395,
  "\u2581ngh\u1ecdta": 1396,
  "\u2581Mkpughe": 1397,
  "\u2581Today": 1398,
  "\u2581gh\u1ecdr\u1ecd": 1399,
  "\u2581ege": 1400,
  "\u2581nlek\u1ecdta": 1401,
  "\u2581aza": 1402,
  "\u2581qualities": 1403,
  "\u2581\u1ecds\u1ee5": 1404,
  "\u1ecdd\u1ecbnihu": 1405,
  "\u2581comes": 1406,
  "\u2581Africa": 1407,
  "\u2581Josef": 1408,
  "\u2581h\u1ecd\u1ecdr\u1ecd": 1409,
  "\u2581ibi": 1410,
  "\u25817,": 1411,
  "\u2581Revelation": 1412,
  "\u2581Rather": 1413,
  "\u2581alaeze": 1414,
  "\u2581gaara": 1415,
  "\u2581kpebiri": 1416,
  "\u2581similar": 1417,
  "\u2581\u00f2k\u00e8": 1418,
  "\u2581sons": 1419,
  "Onye": 1420,
  "\u2581Nwanna": 1421,
  "\u2581physical": 1422,
  "\u2581value": 1423,
  "\u258110:": 1424,
  "\u2581perfect": 1425,
  "\u258112,": 1426,
  "\u2581mgbanwe": 1427,
  "\u2581gives": 1428,
  "\u2581based": 1429,
  "\u2581temple": 1430,
  "\u258116,": 1431,
  "\u2581ar\u1ecba": 1432,
  "\u2581shows": 1433,
  "\u2581friend": 1434,
  "\u2581using": 1435,
  "\u2581dara": 1436,
  "\u2581Grik": 1437,
  "\u2581spiritually": 1438,
  "\u258123.": 1439,
  "\u2581eke": 1440,
  "\u2581material": 1441,
  "espite": 1442,
  "\u2581amalite": 1443,
  "\u2581loved": 1444,
  "\u00f3gb\u00e8": 1445,
  "\u25812,": 1446,
  "\u2581meekwa": 1447,
  "\u258132": 1448,
  "\u2581ebu": 1449,
  "\u2581mwute": 1450,
  "\u2581Dur": 1451,
  "\u2581country": 1452,
  "\u2581everlasting": 1453,
  "\u2581okorob\u1ecba": 1454,
  "\u2581Would": 1455,
  "\u2581draw": 1456,
  "\u2581Mary": 1457,
  "siri": 1458,
  "\u2581ezigh\u1ecb": 1459,
  "\u2581nwetara": 1460,
  "\u2581sisters": 1461,
  "\u2581kar\u1ecbs\u1ecba": 1462,
  "\u2581\u00f3": 1463,
  "\u2581past": 1464,
  "\u2581heard": 1465,
  "\u2581simply": 1466,
  "\u2581kingdom": 1467,
  "\u2581ubi": 1468,
  "\u2581ekwegh\u1ecb": 1469,
  "\u2581g\u1ee5\u1ecd": 1470,
  "\u2581clear": 1471,
  "\u2581Ekwensu": 1472,
  "\u2581ewe": 1473,
  "\u2581s": 1474,
  "\u2581anyanw\u1ee5": 1475,
  "\u2581provided": 1476,
  "\u2581taken": 1477,
  "\u2581Devil": 1478,
  "\u2581as\u1ee5": 1479,
  "\u2581started": 1480,
  "\u2581certainly": 1481,
  "\u2581false": 1482,
  "p": 1483,
  "\u2581ng\u1ecdzi": 1484,
  "onye": 1485,
  "\u2581r\u1ee5\u1ecd": 1486,
  ",\"": 1487,
  "\u2581\u1ecbj\u1ee5": 1488,
  "\u2581sacrifice": 1489,
  "\u2581Did": 1490,
  "\u2581According": 1491,
  "\u2581ezugh\u1ecb": 1492,
  "\u2581lost": 1493,
  "\u2581tell": 1494,
  "\u2581nagh\u1ecb": 1495,
  "\u2581second": 1496,
  "\u2581once": 1497,
  "\u2581resurrection": 1498,
  "\u2581interest": 1499,
  "\u2581nk\u1ee5zi": 1500,
  "\u2581seen": 1501,
  "\u2581bip\u1ee5tara": 1502,
  "\u2581iyi": 1503,
  "\u2581truly": 1504,
  "\u2581divine": 1505,
  "\u2581osimiri": 1506,
  "\u2581Germany": 1507,
  "\u2581\u1ecdnw\u1ee5nwa": 1508,
  "\u2581Jenesis": 1509,
  "\u2581slave": 1510,
  "p\u1ee5r\u1ee5": 1511,
  "\u2581apostles": 1512,
  "\u2581\u1ee5ba": 1513,
  "\u2581agbal\u1ecb": 1514,
  "\u2581anyone": 1515,
  "\u2581\u1eccz\u1ecdkwa": 1516,
  "\u2581p\u1ee5kwara": 1517,
  "az\u1ee5": 1518,
  "\u2581Mm\u1ee5\u1ecd": 1519,
  "\u2581onyeisi": 1520,
  "\u2581problem": 1521,
  "\u2581inyom": 1522,
  "\u2581\u1ecbch\u1ecd": 1523,
  "Ebe": 1524,
  "\u2581evidence": 1525,
  "\u2581leave": 1526,
  "\u2581inspired": 1527,
  "\u2581strength": 1528,
  "\u2581Genesis": 1529,
  "\u2581May": 1530,
  "\u2581die": 1531,
  "\u258122.": 1532,
  "\u2581Mba": 1533,
  "\u2581mb\u00e0": 1534,
  "\u2581fully": 1535,
  "\u2581agbata": 1536,
  "\u2581born": 1537,
  "\u2581An": 1538,
  "\u2581olu": 1539,
  "\u2581circumstances": 1540,
  "\u2581gift": 1541,
  "\u2581Watch": 1542,
  "\u2581effort": 1543,
  "\u2581nwata": 1544,
  "Nd\u1ecb": 1545,
  "\u2581igbu": 1546,
  "\u2581\u1ee4z\u1ecd": 1547,
  "s\u1ecbr\u1ecb": 1548,
  "\u2581N\u00e1": 1549,
  "\u2581righteousness": 1550,
  "\u2581Will": 1551,
  "\u2581iru": 1552,
  "\u2581lived": 1553,
  "\u2581nche": 1554,
  "\u2581nd\u1ecbozi": 1555,
  "\u2581emezu": 1556,
  "\u2581according": 1557,
  "\u2581at\u1ee5le": 1558,
  "\u258113,": 1559,
  "\u2581Tupu": 1560,
  "\u2581serious": 1561,
  "\u2581sister": 1562,
  "\u2581kwes\u1ecb": 1563,
  "\u2581public": 1564,
  "\u2581wonderful": 1565,
  "\u2581Hebrew": 1566,
  "\u2581egw\u00fa": 1567,
  "\u2581here": 1568,
  "\u2581meaning": 1569,
  "\u2581baptism": 1570,
  "\u2581meere": 1571,
  "\u2581return": 1572,
  "\u2581nduzi": 1573,
  "\u2581megide": 1574,
  "\u2581Taa": 1575,
  "\u2581older": 1576,
  "g": 1577,
  "\u2581form": 1578,
  "\u2581emebi": 1579,
  "\u2581further": 1580,
  "\u2581oleekwa": 1581,
  "\u2581m\u1ee5ta": 1582,
  "\u2581accept": 1583,
  "\u2581sheep": 1584,
  "\u2581efforts": 1585,
  "\u2581\u1ecbt\u1ee5": 1586,
  "\u2581\u25cf": 1587,
  "\u2581agh\u1ecdta": 1588,
  "\u2581Roman": 1589,
  "\u2581coming": 1590,
  "\u2581Like": 1591,
  "\u2581a\u1e45\u1ee5": 1592,
  "\u258124.": 1593,
  "\u2581changed": 1594,
  "\u2581Onye\u00e0m\u00e0": 1595,
  "\u2581rather": 1596,
  "\u2581Ji": 1597,
  "\u2581Society": 1598,
  "\u2581effect": 1599,
  "\u2581egosip\u1ee5ta": 1600,
  "\u2581please": 1601,
  "\u2581J": 1602,
  "\u2581nchegbu": 1603,
  "\u2581akwanyere": 1604,
  "\u2581akw\u1ee5s\u1ecb": 1605,
  "\u2581anything": 1606,
  "\u2581l\u1ee5r\u1ee5": 1607,
  "\u2581standards": 1608,
  "\u2581forever": 1609,
  "\u2581understanding": 1610,
  "Okwu": 1611,
  "You": 1612,
  "\u2581named": 1613,
  "\u2581comfort": 1614,
  "\u2581kwek\u1ecdr\u1ecd": 1615,
  "\u2581Now": 1616,
  "\u2581greater": 1617,
  "\u2581d\u1ecb\u1ecbr\u1ecb": 1618,
  "\u2581gain": 1619,
  "\u2581dabeere": 1620,
  "\u2581ewu": 1621,
  "\u2581juru": 1622,
  "\u2581key": 1623,
  "\u2581Europe": 1624,
  "%": 1625,
  "\u2581Life": 1626,
  "\u2581history": 1627,
  "\u2581Nweta": 1628,
  "\u2581aba": 1629,
  "\u2581k\u1ecdwaa": 1630,
  "\u2581longer": 1631,
  "\u2581showed": 1632,
  "\u2581magazin": 1633,
  "\u2581F": 1634,
  "\u2581ach\u1ecdgh\u1ecb": 1635,
  "\u2581rule": 1636,
  "ok\u00e9": 1637,
  "\u2581M\u1ee5": 1638,
  "d\u00ed": 1639,
  "\u258117,": 1640,
  "\u2581imitate": 1641,
  "\u2581written": 1642,
  "\u258137": 1643,
  "\u2581ife": 1644,
  "\u2581agbanwe": 1645,
  "\u2581erubere": 1646,
  "\u2581move": 1647,
  "\u2581t\u1ee5nyere": 1648,
  "B": 1649,
  "Igbe": 1650,
  "\u2581Ezi": 1651,
  "\u2581common": 1652,
  "\u2581Still": 1653,
  "kar\u1ecb": 1654,
  "\u2581eson\u1ee5": 1655,
  "\u2581nwe": 1656,
  "\u2581meeting": 1657,
  "\u2581doubt": 1658,
  "\u2581prayers": 1659,
  "\u2581stand": 1660,
  "\u2581\u1ecddachi": 1661,
  "\u2581Their": 1662,
  "\u258119,": 1663,
  "\u2581months": 1664,
  "\u2581al\u1ee5mdi": 1665,
  "\u2581Nwa": 1666,
  ",...": 1667,
  "nd": 1668,
  "\u2581within": 1669,
  "es": 1670,
  "\u2581government": 1671,
  "\u1ecb": 1672,
  "\u2581Noa": 1673,
  "\u2581kept": 1674,
  "\u2581weere": 1675,
  "Chineke": 1676,
  "\u2581perhaps": 1677,
  "\u2581text": 1678,
  "\u2581d\u1ecdk\u1ecbta": 1679,
  "\u2581speaking": 1680,
  "\u2581therefore": 1681,
  "\u2581call": 1682,
  "\u2581York": 1683,
  "\u2581mkpagbu": 1684,
  "\u2581otuto": 1685,
  "\u2581deal": 1686,
  "\u2581Iv": 1687,
  "\u2581Scriptural": 1688,
  "\u2581Unu": 1689,
  "\u2581doo": 1690,
  "\u2581loyal": 1691,
  "\u2581oyi": 1692,
  "ot\u00fa": 1693,
  "\u2581authority": 1694,
  "\u2581cheta": 1695,
  "\u2581examples": 1696,
  "\u2581powerful": 1697,
  "\u2581congregations": 1698,
  "\u2581promises": 1699,
  "\u2581Instead": 1700,
  "\u2581deep": 1701,
  "\u2581ewere": 1702,
  "\u2581promise": 1703,
  "\u2581Hebrews": 1704,
  "\u2581Aka": 1705,
  "\u2581pioneer": 1706,
  "\u2581nch\u1ee5\u00e0j\u00e0": 1707,
  "\u2581Mark": 1708,
  "abal\u1ecb": 1709,
  "\u2581window": 1710,
  "\u2581\u1eccb\u1ee5na": 1711,
  "\u2581emeso": 1712,
  "\u2581regarding": 1713,
  "\u2581soul": 1714,
  "\u2581stated": 1715,
  "\u2581\u1ecdd\u1ecbmma": 1716,
  "ting": 1717,
  "\u2581Noah": 1718,
  "\u2581published": 1719,
  "\u2581\u1ecdgaranya": 1720,
  "ziri": 1721,
  ".\"": 1722,
  "\u2581prophecy": 1723,
  "\u2581area": 1724,
  "\u2581blessings": 1725,
  "\u2581ch\u1ecdp\u1ee5ta": 1726,
  "\u2581decision": 1727,
  "\u2581everything": 1728,
  "\u2581confidence": 1729,
  "\u2581got": 1730,
  "\u2581alone": 1731,
  "\u2581gburu": 1732,
  "\u2581ndokwa": 1733,
  "\u2581hap\u1ee5r\u1ee5": 1734,
  "\u2581issue": 1735,
  "\u2581kp\u1ecd\u1ecd": 1736,
  "\u2581opportunity": 1737,
  "\u2581Credit": 1738,
  "\u2581ebibi": 1739,
  "\u2581pages": 1740,
  "\u2581\u1ecdd\u1ee5": 1741,
  "\u2581\u1ecdgw\u1ee5gw\u1ee5": 1742,
  "\u2581Jewish": 1743,
  "iri": 1744,
  "\u1ee5d\u1ecb": 1745,
  "\u2581esiri": 1746,
  "\u2581affect": 1747,
  "\u2581explained": 1748,
  "\u2581hands": 1749,
  "\u2581privilege": 1750,
  "\u258118,": 1751,
  "\u258125.": 1752,
  "\u2581Indeed": 1753,
  "\u2581helps": 1754,
  "\u2581nd\u00fa": 1755,
  "\u2581advice": 1756,
  "\u2581an\u1ee5man\u1ee5": 1757,
  "\u2581decisions": 1758,
  "\u2581spoke": 1759,
  "\u2581served": 1760,
  "\u2581display": 1761,
  "\u2581remember": 1762,
  "\u2581expression": 1763,
  "\u2581heavens": 1764,
  "\u2581shall": 1765,
  "\u2581Nwere": 1766,
  "\u2581blessing": 1767,
  "\u2581continued": 1768,
  "\u2581activities": 1769,
  "\u2581role": 1770,
  "\u2581an\u1ecdgide": 1771,
  "\u2581erugh\u1ecb": 1772,
  "\u2581organization": 1773,
  "\u2581available": 1774,
  "\u2581ago": 1775,
  "\u2581considered": 1776,
  "\u2581witness": 1777,
  "\u2581Hence": 1778,
  "\u2581Witness": 1779,
  "\u2581wez\u1ee5ga": 1780,
  "\u2581willing": 1781,
  "\u2581\u00d2t\u00f9": 1782,
  "\u2581ojii": 1783,
  "\u2581visit": 1784,
  "\u2581apply": 1785,
  "\u2581events": 1786,
  "\u2581\u1ecbkw\u1ee5s\u1ecb": 1787,
  "\u2581hearts": 1788,
  "\u2581position": 1789,
  "\u2581students": 1790,
  "\u2581instance": 1791,
  "wa": 1792,
  "\u2581maintain": 1793,
  "\u2581\u1ecdm\u1ecbiko": 1794,
  "\u2581State": 1795,
  "Jehovah": 1796,
  "\u2581thoughts": 1797,
  "\u2581vital": 1798,
  "\u2581held": 1799,
  "\u2581listen": 1800,
  "\u2581\u00ec": 1801,
  "\u2581couple": 1802,
  "\u2581honor": 1803,
  "\u2581baara": 1804,
  "\u2581itinye": 1805,
  "\u2581\u1ecdh\u1ecba": 1806,
  "\u2581poor": 1807,
  "\u2581See": 1808,
  "nyere": 1809,
  "\u2581abal\u1ecb": 1810,
  "\u2581t\u1ecdr\u1ecd": 1811,
  "\u2581Tower": 1812,
  "\u2581seem": 1813,
  "\u2581ar\u1ecb\u1ecd": 1814,
  "\u2581K\u1ecdrint": 1815,
  "\u2581moral": 1816,
  "\u2581ad\u1ecbgide": 1817,
  "\u2581onwunwe": 1818,
  "\u2581ada": 1819,
  "\u2581offer": 1820,
  "\u2581Jems": 1821,
  "\u2581'?": 1822,
  "\u2581AB\u1ee4": 1823,
  "\u2581folder": 1824,
  "\u2581percent": 1825,
  "\u2581chee": 1826,
  "\u2581countries": 1827,
  "\u2581preach": 1828,
  "\u2581various": 1829,
  "ekpere": 1830,
  "\u2581hear": 1831,
  "\u2581led": 1832,
  "\u2581prove": 1833,
  "\u2581nnyocha": 1834,
  "God": 1835,
  "\u2581source": 1836,
  "\u2581True": 1837,
  "\u2581egwuregwu": 1838,
  "\u2581hold": 1839,
  "\u2581First": 1840,
  "\u2581ability": 1841,
  "\u2581emegide": 1842,
  "\u2581Mak": 1843,
  "\u2581agw\u1ecd": 1844,
  "\u2581less": 1845,
  "Mgbe": 1846,
  "\u2581Kat\u1ecdlik": 1847,
  "\u2581church": 1848,
  "ta": 1849,
  "\u2581influence": 1850,
  "\u2581France": 1851,
  "\u2581believers": 1852,
  "\u2581ikwe": 1853,
  "kwala": 1854,
  "\u2581amaokwu": 1855,
  "\u2581glory": 1856,
  "\u2581Jeremiah": 1857,
  "\u2581explains": 1858,
  "\u2581five": 1859,
  "\u2581g\u1ee5r\u1ee5": 1860,
  "\u2581don": 1861,
  "\u2581paneel\u1ee5": 1862,
  "\u2581zara": 1863,
  "iji": 1864,
  "\u2581ap\u1ee5ta": 1865,
  "\u2581answers": 1866,
  "\u2581itself": 1867,
  "\u2581above": 1868,
  "\u2581teachings": 1869,
  "\u2581j\u1ee5\u1ecd": 1870,
  "\u2581sere": 1871,
  "\u2581\u1ecbkp\u1ecd": 1872,
  "\u2581Aha": 1873,
  "\u2581Ukwu": 1874,
  "\u2581angels": 1875,
  "\u2581several": 1876,
  "\u2581branch": 1877,
  "\u2581Meri": 1878,
  "\u2581\u1ecbl\u1ee5": 1879,
  "\u2581ahap\u1ee5": 1880,
  "\u2581Aj\u1ee5j\u1ee5": 1881,
  "\u2581determined": 1882,
  "\u2581accepted": 1883,
  "\u2581head": 1884,
  "\u2581Box": 1885,
  "\u2581un": 1886,
  "\u2581\u1ecbda": 1887,
  "\u2581Eve": 1888,
  "\u2581Ugbu": 1889,
  "\u2581direction": 1890,
  "\u2581ere": 1891,
  "\u2581kpam": 1892,
  "\u2581wants": 1893,
  "\u2581ikwusa": 1894,
  "\u2581ndidi": 1895,
  "udo": 1896,
  "\u2581\u1ee4d\u1ecb": 1897,
  "\u2581b\u1ee5r\u1ee5kwa": 1898,
  "\u2581start": 1899,
  "\u2581Gilead": 1900,
  "\u258120,": 1901,
  "\u2581ad\u1ecbr\u1ecb": 1902,
  "\u2581field": 1903,
  "\u2581k\u1ee5ziiri": 1904,
  "\u2581agh\u1ecd": 1905,
  "\u2581enough": 1906,
  "\u2581build": 1907,
  "\u2581kwe": 1908,
  "\u2581regard": 1909,
  "\u2581violence": 1910,
  "\u2581practical": 1911,
  "\u2581whose": 1912,
  "\u2581\u1ecdt\u1ecd": 1913,
  "Jehova": 1914,
  "\u2581appointed": 1915,
  "\u2581class": 1916,
  "\u2581else": 1917,
  "\u2581agh\u1ee5gh\u1ecd": 1918,
  "\u2581ile": 1919,
  "\u2581pain": 1920,
  "\u2581easy": 1921,
  "\u2581eduzi": 1922,
  "\u2581recorded": 1923,
  "\u2581described": 1924,
  "\u1ecbb\u1ee5": 1925,
  "\u2581nkume": 1926,
  "\u2581Ok\u00e9": 1927,
  "\u2581ehi": 1928,
  "\u2581English": 1929,
  "\u2581Nigeria": 1930,
  "\u2581ezo": 1931,
  "\u2581happened": 1932,
  "an": 1933,
  "\u2581akp\u1ee5": 1934,
  "\u2581working": 1935,
  "\u2581tara": 1936,
  "\u2581itoolu": 1937,
  "\u2581seek": 1938,
  "JI": 1939,
  "\u2581period": 1940,
  "\u2581sexual": 1941,
  "\u2581state": 1942,
  "\u2581Hall": 1943,
  "\u2581letter": 1944,
  "\u258150": 1945,
  "\u2581modern": 1946,
  "\u2581single": 1947,
  "\u2581tinye": 1948,
  "\u2581earlier": 1949,
  "\u2581Have": 1950,
  "\u2581akw\u1ee5": 1951,
  "\u2581met": 1952,
  "\u2581efu": 1953,
  "\u2581w": 1954,
  "\u2581PAGE": 1955,
  "\u2581Betel": 1956,
  "\u2581S\u1ecdl": 1957,
  "\u2581command": 1958,
  "\u2581judgment": 1959,
  "\u2581appreciate": 1960,
  "\u2581complete": 1961,
  "\u2581experienced": 1962,
  "\u2581express": 1963,
  "\u2581million": 1964,
  "\u2581Dr": 1965,
  "\u2581clean": 1966,
  "\u2581reach": 1967,
  "\u2581Ana": 1968,
  "\u2581mgbu": 1969,
  "\u2581appreciation": 1970,
  "\u2581everyone": 1971,
  "\u2581Line": 1972,
  "\u2581clearly": 1973,
  "\u2581daughter": 1974,
  "\u2581G": 1975,
  "\u2581izi": 1976,
  "\u2581Just": 1977,
  "\u2581PEE": 1978,
  "\u2581actually": 1979,
  "\u2581worldwide": 1980,
  "\u2581de": 1981,
  "\u2581mate": 1982,
  "\u2581reasons": 1983,
  "\u2581file": 1984,
  "\u2581job": 1985,
  "\u2581proved": 1986,
  "\u2581conscience": 1987,
  "\u2581flesh": 1988,
  "\u2581strengthen": 1989,
  "\u2581walk": 1990,
  "\u2581ndek\u1ecd": 1991,
  "\u2581aghara": 1992,
  "\u2581Most": 1993,
  "\u2581activity": 1994,
  "\u2581eweta": 1995,
  "\u2581meet": 1996,
  "\u2581psalmist": 1997,
  "ic": 1998,
  "\u258122,": 1999,
  "\u2581\u1ecbt\u1ee5kwas\u1ecb": 2000,
  "\u2581concern": 2001,
  "\u2581Saul": 2002,
  "\u2581myself": 2003,
  "\u2581helping": 2004,
  "\u2581integrity": 2005,
  "\u2581ns\u1ecdp\u1ee5r\u1ee5": 2006,
  "\u2581office": 2007,
  "\u2581\u1ecbkpa": 2008,
  "\u2581allowed": 2009,
  "\u2581created": 2010,
  "\u2581panel": 2011,
  "\u2581ransom": 2012,
  "\u2581training": 2013,
  "\u2581\u00e0": 2014,
  "to": 2015,
  "\u2581T\u1ee5lee": 2016,
  "\u2581anabata": 2017,
  "\u2581grow": 2018,
  "\u2581amata": 2019,
  "\u2581books": 2020,
  "\u2581chapter": 2021,
  "\u2581forth": 2022,
  "\u2581m\u1ee5\u1ecd": 2023,
  "\u2581six": 2024,
  "\u2581\u00e1kw\u00e1": 2025,
  "\u2581Nye": 2026,
  "agha": 2027,
  "bilite": 2028,
  "\u2581ghagh\u1ecb": 2029,
  "\u2581godly": 2030,
  "\u2581actions": 2031,
  "\u2581Okike": 2032,
  "\u2581akara": 2033,
  "\u2581at\u1ee5mat\u1ee5": 2034,
  "\u2581stay": 2035,
  "\u2581write": 2036,
  "\u2581\u1ecbgbanwe": 2037,
  "\u2581action": 2038,
  "\u2581families": 2039,
  "\u2581learning": 2040,
  "able": 2041,
  "\u2581birth": 2042,
  "\u2581eguzosi": 2043,
  "org": 2044,
  "\u2581develop": 2045,
  "\u2581b\u1ee5r\u1ee5god\u1ecb": 2046,
  "\u2581millions": 2047,
  "\u2581offered": 2048,
  "\u2581\u1eccn\u1ee5": 2049,
  "\u00a9": 2050,
  "enwegh\u1ecb": 2051,
  "\u2581appropriate": 2052,
  "\u2581d": 2053,
  "\u2581\u1ecdganihu": 2054,
  "or": 2055,
  "\u2581\u1ecb\u1e45\u1ee5": 2056,
  "\u2581Ak\u1ee5k\u1ecd": 2057,
  "\u2581choose": 2058,
  "\u2581sayens\u1ecb": 2059,
  "\u2581sins": 2060,
  "r\u1ee5": 2061,
  "\u1ecdnwa": 2062,
  "\u2581Agha": 2063,
  "\u2581Anya": 2064,
  "\u2581promised": 2065,
  "\u2581hap\u1ee5": 2066,
  "\u2581ah\u1ee5mah\u1ee5": 2067,
  "\u2581nw\u1ee5\u1ecd": 2068,
  "\u2581magazine": 2069,
  "\u2581positive": 2070,
  "\u2581mbara": 2071,
  "\u2581responsibility": 2072,
  "ma": 2073,
  "\u2581Bethel": 2074,
  "See": 2075,
  "\u2581Egypt": 2076,
  "\u2581tried": 2077,
  "\u2581rest": 2078,
  "\u2581Ask": 2079,
  "\u2581raised": 2080,
  "\u2581respond": 2081,
  "\u2581\u1ecbr\u1ecbba": 2082,
  "\u2581Later": 2083,
  "\u2581decided": 2084,
  "\u2581Therefore": 2085,
  "\u2581az\u1ecbza": 2086,
  "\u2581guidance": 2087,
  "\u2581stop": 2088,
  "\u2581takes": 2089,
  "p\u1ee5": 2090,
  "\u2581results": 2091,
  "\u2581Another": 2092,
  "\u2581echebe": 2093,
  "\u2581hours": 2094,
  "\u2581gbuo": 2095,
  "\u2581precious": 2096,
  "\u258129.": 2097,
  "\u2581addition": 2098,
  "\u2581harmony": 2099,
  "\u2581\u1ecbgh\u1ecd": 2100,
  "\u2581eyi": 2101,
  "\u258131.": 2102,
  "\u2581Banyere": 2103,
  "\u2581carry": 2104,
  "\u2581daily": 2105,
  "\u2581izere": 2106,
  "\u2581subject": 2107,
  "\u2581R": 2108,
  "\u2581South": 2109,
  "\u2581attend": 2110,
  "\u2581regularly": 2111,
  "\u2581\u1ecbta": 2112,
  "\u258128.": 2113,
  "\u2581force": 2114,
  "\u2581\u1ecdl\u1ecb": 2115,
  "efu": 2116,
  "\u2581Af\u1ecd": 2117,
  "Ka": 2118,
  "\u2581report": 2119,
  "\u2581\u25a1": 2120,
  "\u2581changes": 2121,
  "\u2581kw\u1ee5s\u1ecbr\u1ecb": 2122,
  "\u2581A\u1ecbzaya": 2123,
  "\u2581provides": 2124,
  "\u2581shown": 2125,
  "\u2581foretold": 2126,
  "\u2581jup\u1ee5tara": 2127,
  "\u2581Mmiri": 2128,
  "\u2581program": 2129,
  "\u2581regular": 2130,
  "\u2581K": 2131,
  "\u2581evil": 2132,
  "\u2581general": 2133,
  "\u2581lands": 2134,
  "\u2581mezuo": 2135,
  "\u2581neither": 2136,
  "\u2581natural": 2137,
  "\u258134": 2138,
  "\u2581Mexico": 2139,
  "\u2581Moreover": 2140,
  "ikpeaz\u1ee5": 2141,
  "\u2581eat": 2142,
  "\u2581education": 2143,
  "\u2581kp\u1ecdt\u1ee5r\u1ee5": 2144,
  "\u2581ns\u1ee5ghar\u1ecb": 2145,
  "te": 2146,
  "\u2581GA": 2147,
  "tachi": 2148,
  "\u2581accurate": 2149,
  "\u2581ejigh\u1ecb": 2150,
  "ga": 2151,
  "\u2581akwa": 2152,
  "\u2581gbanwee": 2153,
  "\u2581mberede": 2154,
  "\u2581ntorob\u1ecba": 2155,
  "\u2581pressure": 2156,
  "\u2581Or": 2157,
  "\u2581assignment": 2158,
  "\u2581speech": 2159,
  "\u2581\u1ecdch\u1ecb": 2160,
  "u": 2161,
  "\u2581Others": 2162,
  "\u2581knows": 2163,
  "\u2581places": 2164,
  "\u2581Before": 2165,
  "\u2581Efes\u1ecds": 2166,
  "\u2581ar\u1ee5s\u1ecb": 2167,
  "\u2581edebe": 2168,
  "\u2581laws": 2169,
  "\u2581obey": 2170,
  "\u25817]": 2171,
  "\u2581earthly": 2172,
  "\u2581languages": 2173,
  "\u2581short": 2174,
  "\u2581list": 2175,
  "\u2581\u1ee5m\u1ee5nne": 2176,
  "\u2581least": 2177,
  "\u2581ten": 2178,
  "ness": 2179,
  "\u2581challenge": 2180,
  "\u2581exercise": 2181,
  "\u2581indeed": 2182,
  "\u2581nsomebefa\u1ecbl\u1ee5": 2183,
  "\u2581seems": 2184,
  "\u2581Juda": 2185,
  "\u2581ab\u1ee5r\u1ee5": 2186,
  "\u2581ekpebi": 2187,
  "\u2581encouraged": 2188,
  "\u2581\u1ee5k\u1ecdchukwu": 2189,
  "\u2581individual": 2190,
  "\u2581occasion": 2191,
  "\u2581Brother": 2192,
  "\u2581entire": 2193,
  "\u2581K\u1ecdr\u1ecbnt": 2194,
  "\u2581courage": 2195,
  "\u2581covenant": 2196,
  "\u2581door": 2197,
  "\u2581include": 2198,
  "\u2581anger": 2199,
  "\u2581r\u1ecb\u1ecdr\u1ecd": 2200,
  "\u2581emee": 2201,
  "\u2581returned": 2202,
  "\u2581week": 2203,
  "\u2581d\u1ecbgas\u1ecb": 2204,
  "\u2581kwetara": 2205,
  "\u2581rich": 2206,
  "\u2581Love": 2207,
  "\u2581creation": 2208,
  "\u2581Mee": 2209,
  "\u2581nwatak\u1ecbr\u1ecb": 2210,
  "ve": 2211,
  "\u2581behind": 2212,
  "ers": 2213,
  "\u2581praise": 2214,
  "/": 2215,
  "\u2581Jacob": 2216,
  "\u2581aro": 2217,
  "\u2581showing": 2218,
  "\u2581ejeghar\u1ecb": 2219,
  "\u2581parada\u1ecbs": 2220,
  "\u2581Japan": 2221,
  "\u2581Jiri": 2222,
  "\u2581convention": 2223,
  "\u2581former": 2224,
  "\u2581pasent": 2225,
  "\u2581freedom": 2226,
  "\u2581side": 2227,
  "\u2581caused": 2228,
  "\u2581dega": 2229,
  "\u2581practice": 2230,
  "\u2581\u1ecbkwa": 2231,
  "\u2581banye": 2232,
  "\u2581throughout": 2233,
  "\u2581mgbap\u1ee5ta": 2234,
  "\u2581getting": 2235,
  "\u2581ojuju": 2236,
  "\u2581worked": 2237,
  "\u2581Awake": 2238,
  "\u2581emet\u1ee5ta": 2239,
  "\u2581kwes\u1ecbkwara": 2240,
  "\u2581mekwara": 2241,
  "\u2581suffer": 2242,
  "\u2581nchebe": 2243,
  "\u2581\u00d2nye": 2244,
  "\u2581protect": 2245,
  "\u2581Teta": 2246,
  "\u2581igosi": 2247,
  "\u2581invited": 2248,
  "\u2581School": 2249,
  "ru": 2250,
  "\u2581Catholic": 2251,
  "\u2581Keep": 2252,
  "\u2581Osimiri": 2253,
  "\u2581Kemgbe": 2254,
  "\u2581studying": 2255,
  "\u2581as\u1ecdp\u1ee5r\u1ee5": 2256,
  "\u2581prison": 2257,
  "li": 2258,
  "\u1ecbk\u1ee5ziri": 2259,
  "\u2581Ah\u1ee5": 2260,
  "\u2581Ab\u1ee5\u1ecd": 2261,
  "\u2581Di": 2262,
  "si": 2263,
  "\u2581A\u1ecbsa\u1ecba": 2264,
  "\u2581City": 2265,
  "\u2581realize": 2266,
  "\u2581ah\u1ee5kwa": 2267,
  "\u2581\u1ecbmara": 2268,
  "\u2581becoming": 2269,
  "\u2581ijere": 2270,
  "\u2581Ijipt": 2271,
  "\u2581miles": 2272,
  "\u2581okporo": 2273,
  "\u2581turned": 2274,
  "\u2581type": 2275,
  "\u2581seven": 2276,
  "Unu": 2277,
  "zie": 2278,
  "\u2581benefits": 2279,
  "\u2581nk\u1ecdwa": 2280,
  "\u2581kpere": 2281,
  "\u2581tree": 2282,
  "\u2581ihere": 2283,
  "\u2581interested": 2284,
  "\u2581kilomita": 2285,
  "\u2581literature": 2286,
  "\u2581\u1ecbd\u1ecd": 2287,
  "\u2581centuries": 2288,
  "\u2581image": 2289,
  "\u2581interests": 2290,
  "\u2581s\u1ee5ghar\u1ecbr\u1ecb": 2291,
  "\u2581discipline": 2292,
  "us": 2293,
  "\u00e0ny\u1ecb": 2294,
  "\u2581member": 2295,
  "\u2581thousands": 2296,
  "\u2581trials": 2297,
  "\u2581meren\u1ee5": 2298,
  "\u2581Young": 2299,
  "\u2581tells": 2300,
  "less": 2301,
  "\u2581Great": 2302,
  "\u2581Ruo": 2303,
  "\u2581ag\u1ecdzi": 2304,
  "\u2581klas": 2305,
  "\u2581necessary": 2306,
  "le": 2307,
  "\u2581\"\"": 2308,
  "\u2581Perhaps": 2309,
  "\u2581wonder": 2310,
  "\u2581Holy": 2311,
  "\u2581Nile": 2312,
  "\u2581youths": 2313,
  "\u2581goal": 2314,
  "\u2581\u1ecdb\u1ecba": 2315,
  "kwuru": 2316,
  "\u2581emegh\u1ecb": 2317,
  "\u2581erite": 2318,
  "\u00f3k\u00e8": 2319,
  "\u2581Could": 2320,
  "\u2581knowing": 2321,
  "\u2581September": 2322,
  "\u2581kpebie": 2323,
  "\u2581mkpu": 2324,
  "\u2581desires": 2325,
  "\u2581eju": 2326,
  "\u2581ngosi": 2327,
  "\u2581sometimes": 2328,
  "\u2581Joshua": 2329,
  "\u2581More": 2330,
  "\u2581nt\u1ee5ziaka": 2331,
  "\u2581personality": 2332,
  "\u2581emeela": 2333,
  "\u2581\u1ecdka": 2334,
  "\u2581Us": 2335,
  "\u2581Gosi": 2336,
  "\u2581Messiah": 2337,
  "\u2581missionary": 2338,
  "\u2581prayed": 2339,
  "\u2581ememe": 2340,
  "\u2581sort": 2341,
  "ogige": 2342,
  "\u2581lack": 2343,
  "\u2581paradise": 2344,
  "\u2581sex": 2345,
  "Any\u1ecb": 2346,
  "\u2581imperfect": 2347,
  "\u2581morning": 2348,
  "\u2581success": 2349,
  "we": 2350,
  "\u2581building": 2351,
  "\u2581seeking": 2352,
  "\u2581added": 2353,
  "\u2581expect": 2354,
  "\u2581\u1ee5ma": 2355,
  "\u2581focus": 2356,
  "\u2581voice": 2357,
  "\u2581\u1eccz\u1ecd": 2358,
  "\u2581America": 2359,
  "\u2581condition": 2360,
  "\u2581sign": 2361,
  "\u2581About": 2362,
  "\u2581alaka": 2363,
  "\u2581enjoyed": 2364,
  "\u2581proper": 2365,
  "tara": 2366,
  "\u2581genuine": 2367,
  "\u2581disease": 2368,
  "\u2581elder": 2369,
  "\u2581happen": 2370,
  "\u2581\u1ecdd\u1ecbnihu": 2371,
  "\u2581agbaghara": 2372,
  "\u2581quality": 2373,
  "\u2581Judah": 2374,
  "\u2581ach\u1ee5": 2375,
  "\u2581beliefs": 2376,
  "\u2581endure": 2377,
  "\u2581looking": 2378,
  "\u2581\u1ecbz\u1ee5": 2379,
  "nwere": 2380,
  "on": 2381,
  "\u2581amara": 2382,
  "Lee": 2383,
  "\u258124,": 2384,
  "\u2581chebe": 2385,
  "\u2581original": 2386,
  "\u2581Jek\u1ecdb": 2387,
  "\u2581line": 2388,
  "\u2581quickly": 2389,
  "\u2581servant": 2390,
  "\u2581usually": 2391,
  "bara": 2392,
  "\u2581acts": 2393,
  "\u2581address": 2394,
  "\u2581girl": 2395,
  "\u258160": 2396,
  "\u2581gawa": 2397,
  "\u2581goals": 2398,
  "\u2581trying": 2399,
  "z\u00f9": 2400,
  "\u2581beyond": 2401,
  "\u2581elegh\u1ecb": 2402,
  "\u2581either": 2403,
  "\u2581haziri": 2404,
  "\u2581justice": 2405,
  "\u2581selected": 2406,
  "\u2581echere": 2407,
  "\u25819]": 2408,
  "\u2581Nsogbu": 2409,
  "\u2581destruction": 2410,
  "\u2581encourage": 2411,
  "\u2581mgbaru": 2412,
  "\u2581spend": 2413,
  "\u2581feeling": 2414,
  "\u2581record": 2415,
  "\u2581reflect": 2416,
  "\u2581salvation": 2417,
  "\u2581Ephesians": 2418,
  "\u2581beginning": 2419,
  "\u2581humble": 2420,
  "\u2581kee": 2421,
  "\u2581ikpebi": 2422,
  "\u2581spent": 2423,
  "chara": 2424,
  "\u2581Bekee": 2425,
  "\u2581basis": 2426,
  "\u2581greatest": 2427,
  "\u2581g\u1ecbn\u1ecbkwa": 2428,
  "\u2581mas\u1ecbr\u1ecb": 2429,
  "\u2581ach\u1ecdp\u1ee5ta": 2430,
  "\u2581h\u1ecdp\u1ee5tara": 2431,
  "\u2581\u00e1kw\u00e0": 2432,
  "If": 2433,
  "\u2581December": 2434,
  "\u2581July": 2435,
  "\u2581a\u1ecbk\u1ecdn": 2436,
  "\u2581ire": 2437,
  "\u2581agb\u1ee5r\u1ee5": 2438,
  "\u2581assigned": 2439,
  "\u2581copy": 2440,
  "\u2581favor": 2441,
  "\u2581icheta": 2442,
  "\u2581ir\u00e8": 2443,
  "echiche": 2444,
  "\u2581am\u1ee5r\u1ee5": 2445,
  "\u2581fulfillment": 2446,
  "\u2581walking": 2447,
  "ww": 2448,
  "\u2581related": 2449,
  "\u2581\u1ee5da": 2450,
  "\u2581ready": 2451,
  "\u2581Solom\u1ecdn": 2452,
  "\u2581echegbu": 2453,
  "\u2581month": 2454,
  "\u2581Canada": 2455,
  "\u2581blessed": 2456,
  "\u2581conditions": 2457,
  "\u2581enemies": 2458,
  "ka": 2459,
  "\u2581Further": 2460,
  "We": 2461,
  "\u2581War": 2462,
  "\u2581half": 2463,
  "\u2581steps": 2464,
  "\u2581warning": 2465,
  "\u2581\u1ecdgb\u1ecd": 2466,
  "Obi": 2467,
  "\u2581areas": 2468,
  "\u2581\u00f2k\u00f9": 2469,
  "\u2581\u1ecdkachamara": 2470,
  "\u2581Clearly": 2471,
  "aha": 2472,
  "\u258126.": 2473,
  "\u2581bear": 2474,
  "\u2581deeply": 2475,
  "\u2581Though": 2476,
  "\u2581contact": 2477,
  "\u2581firm": 2478,
  "\u2581leaders": 2479,
  "\u2581social": 2480,
  "\u2581emepe": 2481,
  "\u2581Soon": 2482,
  "\u2581\u1ecch\u1ee5r\u1ee5": 2483,
  "\u2581Nevertheless": 2484,
  "\u2581revealed": 2485,
  "usoro": 2486,
  "\u258127.": 2487,
  "\u2581challenges": 2488,
  "\u2581parent": 2489,
  "\u2581sound": 2490,
  "\u2581values": 2491,
  "It": 2492,
  "s\u1ecb": 2493,
  "\u2581kpaliri": 2494,
  "\u2581zere": 2495,
  "kasi": 2496,
  "\u258110]": 2497,
  "\u2581arrived": 2498,
  "\u2581completely": 2499,
  "\u2581H": 2500,
  "\u2581ak\u1ee5": 2501,
  "\u2581crowd": 2502,
  "\u1eca": 2503,
  "\u2581April": 2504,
  "\u2581Brazil": 2505,
  "\u2581baa": 2506,
  "\u2581feet": 2507,
  "\u2581L": 2508,
  "\u2581encouragement": 2509,
  "\u2581faced": 2510,
  "\u2581sleep": 2511,
  "\u2581treat": 2512,
  "\u2581agw\u1ee5": 2513,
  "\u2581term": 2514,
  "\u2581traveling": 2515,
  "\u2581Ala": 2516,
  "\u2581choice": 2517,
  "\u2581emeli": 2518,
  "\u2581eventually": 2519,
  "\u2581\u1ecbhap\u1ee5": 2520,
  "\u2581ihenh\u1ecdr\u1ecd": 2521,
  "\u2581test": 2522,
  "\u2581pay": 2523,
  "\u2581simple": 2524,
  "\u2581100": 2525,
  "\u258170": 2526,
  "\u2581Where": 2527,
  "\u2581d\u1ecdr\u1ecd": 2528,
  "\u258121,": 2529,
  "\u2581alive": 2530,
  "\u2581followed": 2531,
  "\u2581\u1ecbny\u1ecbnya": 2532,
  "\u2581files": 2533,
  "\u2581parts": 2534,
  "\u2581whatever": 2535,
  "Do": 2536,
  "\u2581reports": 2537,
  "ar": 2538,
  "\u2581meworo": 2539,
  "\u2581nje": 2540,
  "\u2581teacher": 2541,
  "\u258123]": 2542,
  "\u2581illustration": 2543,
  "\u2581mercy": 2544,
  "\u2581\u1ee5ta": 2545,
  "\u2581jijiji": 2546,
  "\u2581\u1ecbch\u1ecb": 2547,
  "\u2581ugbo": 2548,
  "\u2581beautiful": 2549,
  "\u2581studies": 2550,
  "\u2581Echiche": 2551,
  "\u2581almo": 2552,
  "\u2581gbanwere": 2553,
  "\u2581igwe": 2554,
  "\u2581ar\u1ecbr\u1ecb\u1ecd": 2555,
  "\u2581Church": 2556,
  "\u2581Filipa\u1ecb": 2557,
  "\u2581ahead": 2558,
  "\u2581ozu": 2559,
  "\u2581ule": 2560,
  "kwaara": 2561,
  "\u2581cope": 2562,
  "\u2581cultivate": 2563,
  "ah\u1ee5": 2564,
  "\u2581yie": 2565,
  "\u2581Ruth": 2566,
  "\u2581jikwa": 2567,
  "\u2581recent": 2568,
  "\u2581Onwe": 2569,
  "\u2581k\u1ee5ziere": 2570,
  "h\u00fa": 2571,
  "\u2581Show": 2572,
  "\u2581Similarly": 2573,
  "\u2581Tim": 2574,
  "\u2581brings": 2575,
  "\u2581emep\u1ee5ta": 2576,
  "\u2581k\u1ecdmputa": 2577,
  "\u2581protection": 2578,
  "\u2581ch\u1ee5\u1ecd": 2579,
  "\u2581translation": 2580,
  "\u2581Un": 2581,
  "\u2581explain": 2582,
  "\u2581g\u1ecd\u1ecdmenti": 2583,
  "\u2581sacred": 2584,
  "ak\u1ee5k\u1ecd": 2585,
  "\u2581\u1ee4b\u1ecdch\u1ecb": 2586,
  "t\u1ee5": 2587,
  "\u2581edu": 2588,
  "\u258135.": 2589,
  "\u2581ebubo": 2590,
  "\u2581expressed": 2591,
  "\u2581km": 2592,
  "\u2581town": 2593,
  "\u258133.": 2594,
  "\u2581accounts": 2595,
  "\u2581fire": 2596,
  "\u2581agbaso": 2597,
  "\u2581ara": 2598,
  "\u2581location": 2599,
  "\u2581Children": 2600,
  "kwuo": 2601,
  "\u2581ach\u1ecbkwa": 2602,
  "\u2581fulfilled": 2603,
  "\u2581noted": 2604,
  "\u2581approach": 2605,
  "\u2581included": 2606,
  "\u2581lot": 2607,
  "\u2581\u1ecah\u1ee5nanya": 2608,
  "\u2581emotional": 2609,
  "\u2581publications": 2610,
  "omume": 2611,
  "\u2581articles": 2612,
  "\u2581ar\u1ecd": 2613,
  "\u2581closer": 2614,
  "\u2581progress": 2615,
  "\u2581sea": 2616,
  "cha": 2617,
  "\u2581angel": 2618,
  "\u2581prevent": 2619,
  "\u2581principle": 2620,
  "\u2581youth": 2621,
  "\u2581\u1ecbba": 2622,
  "\u2581Remember": 2623,
  "\u2581kwadoro": 2624,
  "\u2581omenala": 2625,
  "\u2581unity": 2626,
  "am\u1ee5ma": 2627,
  "\u2581Really": 2628,
  "\u2581S\u1ecdl\u1ecdm\u1ecdn": 2629,
  "\u2581fruit": 2630,
  "\u2581t\u1ee5kwas\u1ecbr\u1ecb": 2631,
  "\u2581final": 2632,
  "\u2581\u1ecdb\u1ee5": 2633,
  "Izrel": 2634,
  "ya": 2635,
  "\u2581Agagh\u1ecb": 2636,
  "\u2581realized": 2637,
  "Na": 2638,
  "\u2581examine": 2639,
  "\u2581truths": 2640,
  "\u2581Good": 2641,
  "\u2581behalf": 2642,
  "\u2581filled": 2643,
  "\u2581gaje": 2644,
  "\u2581mental": 2645,
  "\u2581sacrifices": 2646,
  "\u2581Ezin\u1ee5l\u1ecd": 2647,
  "\u2581political": 2648,
  "\u2581recognize": 2649,
  "\u00e0j\u00e0": 2650,
  "\u258135": 2651,
  "\u2581Should": 2652,
  "\u2581cases": 2653,
  "chi": 2654,
  "\u2581ad\u1ecbbegh\u1ecb": 2655,
  "\u2581biko": 2656,
  "\u2581chaa": 2657,
  "\u2581IN": 2658,
  "\u2581acha": 2659,
  "\u2581idea": 2660,
  "\u2581k\u1ecd\u1ecdr\u1ecd": 2661,
  "\u2581lesson": 2662,
  "\u2581Eto": 2663,
  "\u2581priest": 2664,
  "\u2581security": 2665,
  "\u2581Mesaya": 2666,
  "\u2581kamakwa": 2667,
  "\u2581nkwenkwe": 2668,
  "\u2581passed": 2669,
  "\u2581March": 2670,
  "\u2581associated": 2671,
  "\u2581nature": 2672,
  "\u2581wives": 2673,
  "\u2581aware": 2674,
  "\u2581fall": 2675,
  "\u2581involves": 2676,
  "\u2581priests": 2677,
  "\u2581\u1ecbs\u1ee5": 2678,
  "is": 2679,
  "\u2581BIBLE": 2680,
  "\u2581England": 2681,
  "\u2581begin": 2682,
  "\u2581echebara": 2683,
  "\u2581ejiri": 2684,
  "\u2581negative": 2685,
  "\u2581worshippers": 2686,
  "\u2581yourselves": 2687,
  ">": 2688,
  "gara": 2689,
  "\u258130.": 2690,
  "\u2581Elijah": 2691,
  "\u2581Gris": 2692,
  "\u2581chiri": 2693,
  "\u2581humility": 2694,
  "\u2581importance": 2695,
  "\u2581medical": 2696,
  "\u2581nt\u1ee5r\u1ee5nd\u1ee5": 2697,
  "\u2581r\u1ecb\u1ecd": 2698,
  "\u2581Pennsylvania": 2699,
  "\u2581discuss": 2700,
  "\u2581ese": 2701,
  "\u2581kpee": 2702,
  "\u258115]": 2703,
  "\u2581carefully": 2704,
  "\u258128,": 2705,
  "\u2581Brooklyn": 2706,
  "\u2581boy": 2707,
  "\u2581emi": 2708,
  "\u2581animals": 2709,
  "\u2581ohi": 2710,
  "\u2581ag\u1ee5nye": 2711,
  "\u2581ewute": 2712,
  "\u2581ifufe": 2713,
  "\u2581nzuzo": 2714,
  "\u2581society": 2715,
  "ikpe": 2716,
  "\u2581BA\u1ecaB\u1ee4L": 2717,
  "\u2581Babylon": 2718,
  "\u2581Mma": 2719,
  "\u2581raara": 2720,
  "\u2581akp\u1ecdr\u1ecd": 2721,
  "\u2581consequences": 2722,
  "\u2581Britain": 2723,
  "\u2581Inwe": 2724,
  "\u2581January": 2725,
  "\u2581June": 2726,
  "\u2581sun": 2727,
  "\u2581zaa": 2728,
  "\u2581\u1eccch\u1ecbch\u1ecb": 2729,
  "\u2581outside": 2730,
  "\u2581prepared": 2731,
  "\u2581Cheta": 2732,
  "\u2581calls": 2733,
  "\u2581immediately": 2734,
  "jw": 2735,
  "\u2581Through": 2736,
  "\u2581ach\u1ecbcha": 2737,
  "\u2581Kwes\u1ecbr\u1ecb": 2738,
  "\u2581fight": 2739,
  "\u2581neighbor": 2740,
  "\u2581St": 2741,
  "\u2581visited": 2742,
  "\u2581Australia": 2743,
  "\u2581appear": 2744,
  "\u2581instead": 2745,
  "\u2581mpako": 2746,
  "\u2581persecution": 2747,
  "\u2581third": 2748,
  "\u2581\u1ecbb\u1ecba": 2749,
  "\u2581keeping": 2750,
  "\u2581required": 2751,
  "\u2581ad\u1ecbkwa": 2752,
  "\u2581observed": 2753,
  "\u2581Also": 2754,
  "\u2581imagine": 2755,
  "\u2581relief": 2756,
  "\u1ee5": 2757,
  "\u2581Was": 2758,
  "\u2581devotion": 2759,
  "\u2581experiences": 2760,
  "\u2581re": 2761,
  "\u2581resurrected": 2762,
  "\u2581t\u1ee5kwas\u1ecb": 2763,
  "In": 2764,
  "\u2581University": 2765,
  "\u2581meant": 2766,
  "\u2581personally": 2767,
  "\u2581specific": 2768,
  "\u2581\u1ecala\u1ecbja": 2769,
  "\u2581Uru": 2770,
  "\u2581ilu": 2771,
  "\u2581jee": 2772,
  "\u2581seemed": 2773,
  "\u2581ground": 2774,
  "\u2581\u1ecbghara": 2775,
  "\u25811914": 2776,
  "\u2581kara": 2777,
  "\u2581kp\u1ecd": 2778,
  "\u2581Russia": 2779,
  "\u2581edozi": 2780,
  "\u2581prepare": 2781,
  "\u2581\u00c0ny\u1ecb": 2782,
  "\u2581dedicated": 2783,
  "\u2581ewep\u1ee5ta": 2784,
  "\u2581ikwes\u1ecb": 2785,
  "\u2581names": 2786,
  "\u2581Rut": 2787,
  "\u2581asking": 2788,
  "\u2581contrast": 2789,
  "\u2581emewo": 2790,
  "\u2581inside": 2791,
  "\u2581destroyed": 2792,
  "\u2581opened": 2793,
  "\u2581verse": 2794,
  "\u2581\u1ecdkara": 2795,
  "\u2581established": 2796,
  "\u2581ikekwe": 2797,
  "\u2581presence": 2798,
  "ro": 2799,
  "\u00b7": 2800,
  "\u2581affection": 2801,
  "\u2581gosip\u1ee5tara": 2802,
  "\u2581hour": 2803,
  "iyi": 2804,
  "\u2581Her": 2805,
  "\u2581\u1ecbch\u1ecdta": 2806,
  "\u2581Each": 2807,
  "\u2581Elu": 2808,
  "\u2581attended": 2809,
  "\u2581enwekwa": 2810,
  "\u2581forward": 2811,
  "\u2581homes": 2812,
  "\u2581observe": 2813,
  "\u2581sharing": 2814,
  "\u2581tribulation": 2815,
  "\u2581Ch\u1ecd\u1ecdch\u1ecb": 2816,
  "\u2581ekwur\u1ecbta": 2817,
  "agbata": 2818,
  "\u2581Move": 2819,
  "\u2581Nautilus": 2820,
  "\u2581Ugwu": 2821,
  "\u2581al\u1ee5kwagh\u1ecbm": 2822,
  "\u2581groups": 2823,
  "\u2581menu": 2824,
  "\u2581jide": 2825,
  "\u2581lere": 2826,
  "\u2581echefu": 2827,
  "\u2581lie": 2828,
  "\u2581major": 2829,
  "\u2581nz\u1ecdp\u1ee5ta": 2830,
  "\u2581\u1ee5t\u1ee5": 2831,
  "D": 2832,
  "Let": 2833,
  "\u2581India": 2834,
  "\u2581step": 2835,
  "\u2581\"[": 2836,
  "\u2581TO": 2837,
  "\u2581arrangement": 2838,
  "\u2581Rome": 2839,
  "\u2581emer\u1ee5": 2840,
  "\u2581strive": 2841,
  "\u2581Were": 2842,
  "\u2581behavior": 2843,
  "\u2581kings": 2844,
  "\u2581kweta": 2845,
  "\u2581maa": 2846,
  "\u2581nketa": 2847,
  "\u2581nkwado": 2848,
  "\u2581Paradise": 2849,
  "\u2581sina": 2850,
  ".)": 2851,
  "en": 2852,
  "rubere": 2853,
  "\u2581spoken": 2854,
  "\u2581workers": 2855,
  "ikwu": 2856,
  "ll": 2857,
  "\u2581urged": 2858,
  "\u2581anwa": 2859,
  "\u2581minister": 2860,
  "\u2581nch\u1ecdp\u1ee5ta": 2861,
  "\u2581picture": 2862,
  "\u2581Anyanw\u1ee5": 2863,
  "\u2581Bab\u1ecbl\u1ecdn": 2864,
  "\u2581October": 2865,
  "\u2581elderly": 2866,
  "\u2581laa": 2867,
  "\u2581Okwukwe": 2868,
  "\u2581sick": 2869,
  "\u2581treatment": 2870,
  "\u02b9": 2871,
  "\u2581Family": 2872,
  "\u2581ebip\u1ee5ta": 2873,
  "\u2581esemokwu": 2874,
  "\u2581practices": 2875,
  "\u258165": 2876,
  "\u2581Nwoke": 2877,
  "\u2581built": 2878,
  "\u2581developed": 2879,
  "\u2581loss": 2880,
  "\u2581teachers": 2881,
  "He": 2882,
  "\u2581attending": 2883,
  "\u2581chosen": 2884,
  "\u25815]": 2885,
  "\u2581AIDS": 2886,
  "\u2581opposition": 2887,
  "\u2581reasonable": 2888,
  "\u2581room": 2889,
  "\u1ecbh\u1ee5nanya": 2890,
  "\u2581iguzosi": 2891,
  "\u2581ndi": 2892,
  "\u2581loyalty": 2893,
  "x": 2894,
  "\u2581Mb\u1ee5": 2895,
  "\u2581contains": 2896,
  "\u2581missionaries": 2897,
  "\u2581njik\u1ecd": 2898,
  "\u2581Matt": 2899,
  "\u2581Questions": 2900,
  "\u2581dedication": 2901,
  "z": 2902,
  "\u2581Only": 2903,
  "\u2581kpakpando": 2904,
  "\u2581nabatara": 2905,
  "\u2581date": 2906,
  "\u2581enwere": 2907,
  "\u2581kwes\u1ecbgh\u1ecb": 2908,
  "\u2581wep\u1ee5tara": 2909,
  "\u2581\u1ecbch\u1ecdp\u1ee5ta": 2910,
  "\u2581d\u1ecbgh\u1ecbkwa": 2911,
  "\u2581nkiri": 2912,
  "\u2581akp\u1ecdlite": 2913,
  "\u2581association": 2914,
  "\u2581at\u1ee5kwas\u1ecb": 2915,
  "\u2581agree": 2916,
  "\u2581although": 2917,
  "\u2581chetara": 2918,
  "\u2581effective": 2919,
  "\u2581limited": 2920,
  "\u2581Make": 2921,
  "T": 2922,
  "\u2581forget": 2923,
  "\u2581windows": 2924,
  "\u2581ad\u1ecdr\u1ecd": 2925,
  "\u2581akasi": 2926,
  "\u2581disciple": 2927,
  "\u2581produce": 2928,
  "\u2581response": 2929,
  "\u2581standing": 2930,
  "\u2581Chegod\u1ecb": 2931,
  "\u2581Mkpa": 2932,
  "\u2581August": 2933,
  "\u2581Translation": 2934,
  "\u2581convinced": 2935,
  "\u2581daa": 2936,
  "\u2581destroy": 2937,
  "\u2581rejoice": 2938,
  "\u2581watch": 2939,
  "\u2581evening": 2940,
  "\u2581household": 2941,
  "\u2581pioneers": 2942,
  "\u2581Ikpe": 2943,
  "\u2581k\u1ee5ziri": 2944,
  "\u2581merela": 2945,
  "\u2581overseer": 2946,
  "\u2581Over": 2947,
  "\u2581Version": 2948,
  "\u2581ekiri": 2949,
  "\u2581ide": 2950,
  "\u2581killed": 2951,
  "\u2581music": 2952,
  "\u2581\u1eccnw\u1ee5": 2953,
  "\u2581bread": 2954,
  "\u2581emet\u1ee5": 2955,
  "\u2581friendship": 2956,
  "\u2581mes\u1ecba": 2957,
  "\u2581remained": 2958,
  "\u2581\u00c8": 2959,
  "ghachi": 2960,
  "\u2581K\u1ecdl\u1ecdsi": 2961,
  "\u2581i\u1e45omi": 2962,
  "\u2581sovereignty": 2963,
  "\u2581surely": 2964,
  "\u2581imere": 2965,
  "\u2581relatives": 2966,
  "\u2581responsible": 2967,
  "\u2581Sarah": 2968,
  "\u2581am\u1ecb": 2969,
  "\u2581business": 2970,
  "\u2581m\u1ecd\u1ecdb\u1ee5": 2971,
  "\u2581request": 2972,
  "\u2581zie": 2973,
  "\u2581ISIOKWU": 2974,
  "\u2581tongue": 2975,
  "okporo": 2976,
  "\u2581SONGS": 2977,
  "\u2581erube": 2978,
  "\u2581gachara": 2979,
  "\u2581ige": 2980,
  "\u2581matara": 2981,
  "\u2581mbibi": 2982,
  "as": 2983,
  "\u2581H\u1ecdr\u1ecd": 2984,
  "\u2581Iche": 2985,
  "\u2581Philippians": 2986,
  "\u2581continues": 2987,
  "\u2581l\u1ee5\u1ecd": 2988,
  "\u2581okpotokpo": 2989,
  "\u2581reported": 2990,
  "\u2581risk": 2991,
  "\u2581shepherd": 2992,
  "\u2581sincere": 2993,
  "\u2581Mat": 2994,
  "\u2581Omume": 2995,
  "\u2581Well": 2996,
  "\u2581ch\u1ee5r\u1ee5": 2997,
  "\u2581includes": 2998,
  "\u2581play": 2999,
  "\u2581suffered": 3000,
  "\u2581\u1ecdgb\u1ee5gba": 3001,
  "more": 3002,
  "\u2581Help": 3003,
  "\u2581ad\u1ecd": 3004,
  "\u2581car": 3005,
  "\u2581improve": 3006,
  "\u2581nk\u00e1": 3007,
  "\u2581obedience": 3008,
  "\u2581kpamkpam": 3009,
  "\u2581\u1ecbch\u1ee5": 3010,
  "\u00f3": 3011,
  "\u25814;": 3012,
  "\u2581American": 3013,
  "\u2581\u00e1m\u00e1": 3014,
  "\u2581active": 3015,
  "\u2581issues": 3016,
  "\u2581seeing": 3017,
  "ha": 3018,
  "\u2581J\u1ecdsh\u1ee5a": 3019,
  "\u2581event": 3020,
  "\u2581existence": 3021,
  "\u2581foreign": 3022,
  "\u2581offering": 3023,
  "\u2581points": 3024,
  "\u2581requires": 3025,
  "\u2581save": 3026,
  "okwukwe": 3027,
  "\u2581affected": 3028,
  "\u2581at\u1ee5ghar\u1ecb": 3029,
  "\u2581element": 3030,
  "\u2581error": 3031,
  "\u2581alcohol": 3032,
  "\u2581imeri": 3033,
  "\u2581iwere": 3034,
  "\u2581situations": 3035,
  "god\u1ecb": 3036,
  "mong": 3037,
  "\u2581November": 3038,
  "\u2581expected": 3039,
  "\u2581late": 3040,
  "\u2581zigara": 3041,
  "\u2581\u00c0gw\u00e0": 3042,
  "\u2581TV": 3043,
  "\u2581egbochi": 3044,
  "\u2581opening": 3045,
  "\u2581sikwuo": 3046,
  "\u2581stress": 3047,
  "\u1ecbd\u1ecb": 3048,
  "\u258123,": 3049,
  "\u2581flock": 3050,
  "\u2581note": 3051,
  "\u258118]": 3052,
  "\u2581answered": 3053,
  "\u2581basic": 3054,
  "\u2581igbe": 3055,
  "\u2581zoro": 3056,
  "\u2581\u1ecad\u1ecb": 3057,
  "\u2581\u1ee5t\u1ee5t\u1ee5": 3058,
  "\u2581cities": 3059,
  "\u2581cut": 3060,
  "\u2581lose": 3061,
  "\u2581student": 3062,
  "r\u1ecd": 3063,
  "\u2581Jerema\u1ecba": 3064,
  "\u2581emegbu": 3065,
  "\u2581ewetara": 3066,
  "\u2581overcome": 3067,
  "\u2581seed": 3068,
  "\u2581acceptable": 3069,
  "\u2581conclusion": 3070,
  "\u2581finally": 3071,
  "\u2581nweekwa": 3072,
  "\u2581patient": 3073,
  "\u2581search": 3074,
  "\u2581KA": 3075,
  "\u2581publishers": 3076,
  "all": 3077,
  "\u2581Mm\u1ee5ta": 3078,
  "\u2581b\u1ecbaara": 3079,
  "\u2581danger": 3080,
  "\u2581guard": 3081,
  "r\u1ecbr\u1ecb": 3082,
  "\u2581valuable": 3083,
  "\u2581Blur": 3084,
  "\u2581declared": 3085,
  "\u2581grateful": 3086,
  "\u2581ilek\u1ecdta": 3087,
  "\u2581reveal": 3088,
  "\u2581spread": 3089,
  "\u1ecdm\u1ee5m\u1ee5": 3090,
  "\u258136": 3091,
  "\u2581compassion": 3092,
  "\u2581concerned": 3093,
  "\u2581enyocha": 3094,
  "\u2581front": 3095,
  "\u2581increase": 3096,
  "\u2581merie": 3097,
  "\u258138": 3098,
  "\u2581Christianity": 3099,
  "\u2581Ecclesiastes": 3100,
  "\u2581abuse": 3101,
  "\u2581believed": 3102,
  "\u2581b\u1ee5\u1ee5r\u1ee5": 3103,
  "\u2581describes": 3104,
  "\u2581ebo": 3105,
  "\u2581eburu": 3106,
  "\u2581echetara": 3107,
  "\u2581placed": 3108,
  "\u2581teaches": 3109,
  "Ab\u1ee5": 3110,
  "\u258110;": 3111,
  "\u258113]": 3112,
  "\u2581Internet": 3113,
  "\u2581abagh\u1ecb": 3114,
  "\u2581becomes": 3115,
  "\u2581obedient": 3116,
  "\u2581\u1ecdd\u1ecbd\u1ecb": 3117,
  "\u2581\u1ee4t\u1ecd": 3118,
  "When": 3119,
  "\u2581T\u1ee5kwas\u1ecb": 3120,
  "\u2581e\u1e45omi": 3121,
  "\u2581fim": 3122,
  "\u2581idi": 3123,
  "Ijipt": 3124,
  "\u2581Time": 3125,
  "\u2581grew": 3126,
  "\u2581illness": 3127,
  "\u2581kenye": 3128,
  "\u2581refused": 3129,
  "\u2581warned": 3130,
  "\u2581adabere": 3131,
  "\u2581kp\u1ee5": 3132,
  "P": 3133,
  "\u258145": 3134,
  "\u2581listening": 3135,
  "\u2581pursue": 3136,
  "\u2581run": 3137,
  "\u2581viewed": 3138,
  "\u2581Nwunye": 3139,
  "\u2581dek\u1ecdr\u1ecd": 3140,
  "\u2581energy": 3141,
  "\u2581gbat\u1ee5r\u1ee5": 3142,
  "\u2581rie": 3143,
  "\u2581an\u1ecdgh\u1ecb": 3144,
  "\u258132.": 3145,
  "\u2581easily": 3146,
  "\u2581fail": 3147,
  "\u2581referred": 3148,
  "Oge": 3149,
  "he": 3150,
  "izu": 3151,
  "\u2581Ps": 3152,
  "\u2581bibie": 3153,
  "\u2581manner": 3154,
  "\u2581\u1ecbkpata": 3155,
  "\u2581mouth": 3156,
  "\u2581wine": 3157,
  "\u2581agbal\u1ecbsi": 3158,
  "\u2581a\u1e45\u1ee5r\u1ecb": 3159,
  "\u2581eti": 3160,
  "\u2581imebi": 3161,
  "\u2581(2)": 3162,
  "\u2581Memorial": 3163,
  "\u2581Ozugbo": 3164,
  "\u2581ap\u1ee5": 3165,
  "\u2581particular": 3166,
  "\u2581successful": 3167,
  "\u2581understood": 3168,
  "\u2581z\u1ee5\u1ecd": 3169,
  "and": 3170,
  "bu": 3171,
  "no": 3172,
  "\u2581(1)": 3173,
  "\u2581Mount": 3174,
  "\u2581ad\u1ecbgh\u1ecbkwa": 3175,
  "\u2581concerning": 3176,
  "\u2581n\u1ecdchiri": 3177,
  "\u2581pure": 3178,
  "\u2581Ikekwe": 3179,
  "\u2581Nne": 3180,
  "\u2581emesi": 3181,
  "\u2581failed": 3182,
  "\u2581talking": 3183,
  "\u25812000": 3184,
  "\u2581delight": 3185,
  "\u2581ncheta": 3186,
  "\u2581particularly": 3187,
  "\u2581resist": 3188,
  "\u2581universe": 3189,
  "\u2581amount": 3190,
  "\u2581confident": 3191,
  "\u2581items": 3192,
  "\u2581siiri": 3193,
  "\u2581j\u1ee5": 3194,
  "\u2581writer": 3195,
  "\u2581Body": 3196,
  "\u2581Teach": 3197,
  "\u2581dep\u1ee5tara": 3198,
  "\u2581harm": 3199,
  "est": 3200,
  "\u2581Ekpere": 3201,
  "\u2581eight": 3202,
  "\u2581Parada\u1ecbs": 3203,
  "\u2581Eziokwu": 3204,
  "\u2581Nkwa": 3205,
  "\u2581caring": 3206,
  "\u2581conversation": 3207,
  "\u2581demonstrate": 3208,
  "\u2581eye": 3209,
  "\u2581sekit": 3210,
  "uru": 3211,
  "\u2581Nazi": 3212,
  "\u2581approval": 3213,
  "\u2581background": 3214,
  "\u2581road": 3215,
  "\u2581\u1ecdlaedo": 3216,
  "k\u1ee5da": 3217,
  "\u2581YOU": 3218,
  "\u2581ekweta": 3219,
  "\u2581mmegide": 3220,
  "\u2581vision": 3221,
  "\u2581\u1ecdb\u1ee5la": 3222,
  "\u2581French": 3223,
  "begh\u1ecb": 3224,
  "\u2581High": 3225,
  "\u2581emecha": 3226,
  "\u2581quoted": 3227,
  "\u2581relative": 3228,
  "\u2581worth": 3229,
  "\u2581\u00e1j\u00e1": 3230,
  "\u2581gifts": 3231,
  "\u2581kpara": 3232,
  "\u2581riches": 3233,
  "nke": 3234,
  "\u2581comments": 3235,
  "\u2581preached": 3236,
  "\u2581prospect": 3237,
  "\u2581fill": 3238,
  "\u2581inyogo": 3239,
  "\u2581looked": 3240,
  "\u2581claim": 3241,
  "\u2581identify": 3242,
  "\u2581measure": 3243,
  "\u2581D\u1eca": 3244,
  "\u2581London": 3245,
  "\u2581army": 3246,
  "\u2581big": 3247,
  "\u2581growing": 3248,
  "\u2581icon": 3249,
  "\u2581igosip\u1ee5ta": 3250,
  "\u2581nnup\u1ee5isi": 3251,
  "\u2581uses": 3252,
  "\u2581weeks": 3253,
  "\u2581\u1ee5gb\u1ecdelu": 3254,
  "],": 3255,
  "\u2581Isaac": 3256,
  "\u2581Sunday": 3257,
  "\u2581ah\u1ecdr\u1ecd": 3258,
  "\u2581ap\u1ee5tagh\u1ecb": 3259,
  "quite": 3260,
  "\u2581Faith": 3261,
  "\u2581Once": 3262,
  "\u2581ah\u1ecbh\u1ecba": 3263,
  "\u2581anxiety": 3264,
  "\u2581forgiveness": 3265,
  "\u2581notes": 3266,
  "\u2581statement": 3267,
  "\u2581Robert": 3268,
  "\u2581Spanish": 3269,
  "\u2581adds": 3270,
  "\u2581bidoro": 3271,
  "\u2581police": 3272,
  "\u258117]": 3273,
  "\u2581ar\u1ee5si": 3274,
  "\u2581commanded": 3275,
  "\u2581publication": 3276,
  "\u2581\u00f3gb\u00e8": 3277,
  "Ime": 3278,
  "\u2581Two": 3279,
  "\u2581ab\u1ecbara": 3280,
  "\u2581adaba": 3281,
  "\u2581ak\u1ecdr\u1ecd": 3282,
  "\u2581community": 3283,
  "\u2581military": 3284,
  "\u2581nhazi": 3285,
  "\u2581oil": 3286,
  "Otu": 3287,
  "This": 3288,
  "\u2581Being": 3289,
  "\u2581Under": 3290,
  "\u2581wait": 3291,
  "adres": 3292,
  "\u2581break": 3293,
  "\u2581ngw\u1ee5s\u1ecb": 3294,
  "\u2581sight": 3295,
  "R": 3296,
  "\u2581drink": 3297,
  "\u2581II": 3298,
  "\u2581Other": 3299,
  "\u2581Sea": 3300,
  "\u2581mp\u1ee5": 3301,
  "\u2581reality": 3302,
  "\u2581territory": 3303,
  "\u2581edo": 3304,
  "\u2581nd\u1ecbda": 3305,
  "\u2581story": 3306,
  "\u2581writing": 3307,
  "\u2581Govern": 3308,
  "\u2581causes": 3309,
  "\u2581oyiyi": 3310,
  "be": 3311,
  "\u2581presented": 3312,
  "\u2581remind": 3313,
  "\u2581satisfaction": 3314,
  "\u2581an\u1ecdchi": 3315,
  "\u2581discussed": 3316,
  "\u2581ebute": 3317,
  "\u2581forgive": 3318,
  "\u2581greatly": 3319,
  "\u2581helpful": 3320,
  "\u2581iburu": 3321,
  "\u2581February": 3322,
  "\u2581eating": 3323,
  "\u2581ekere": 3324,
  "\u2581foto": 3325,
  "\u2581violent": 3326,
  "\u2581younger": 3327,
  "\u25813;": 3328,
  "\u2581erule": 3329,
  "\u2581gafere": 3330,
  "\u2581gbal\u1ecba": 3331,
  "\u2581react": 3332,
  "\u25811999": 3333,
  "\u2581Ncheta": 3334,
  "\u2581direct": 3335,
  "\u2581enter": 3336,
  "\u2581reward": 3337,
  "\u2581Colossians": 3338,
  "\u2581Latin": 3339,
  "\u2581National": 3340,
  "\u2581appeared": 3341,
  "\u2581discussion": 3342,
  "\u2581ijide": 3343,
  "Y": 3344,
  "\u2581Ije": 3345,
  "\u2581OF": 3346,
  "\u2581Work": 3347,
  "\u2581baby": 3348,
  "\u2581encouraging": 3349,
  "\u2581guide": 3350,
  "\u2581hearing": 3351,
  "\u2581jere": 3352,
  "\u2581megidere": 3353,
  "\u2581mejup\u1ee5tara": 3354,
  "\u2581\u1eccr\u1ecba": 3355,
  "\u25812001": 3356,
  "\u2581Gospel": 3357,
  "\u2581bie": 3358,
  "\u2581doctor": 3359,
  "\u2581Cor": 3360,
  "\u2581Nwee": 3361,
  "\u2581Take": 3362,
  "\u2581discreet": 3363,
  "\u2581n\u1ee5": 3364,
  "\u2581ofufo": 3365,
  "\u2581accomplish": 3366,
  "\u2581akpagbu": 3367,
  "\u2581drugs": 3368,
  "\u2581ejide": 3369,
  "\u2581welcome": 3370,
  "kpar\u1ecbta": 3371,
  "\u2581box": 3372,
  "\u2581environment": 3373,
  "\u2581fulfill": 3374,
  "\u2581hurt": 3375,
  "\u2581immoral": 3376,
  "\u2581probab": 3377,
  "\u2581anyaukwu": 3378,
  "\u2581nr\u1ee5gide": 3379,
  "ation": 3380,
  "\u2581busy": 3381,
  "\u2581eruo": 3382,
  "\u2581merely": 3383,
  "\u2581produced": 3384,
  "\u2581zeal": 3385,
  "\u2581Finally": 3386,
  "\u2581ak\u1ecdnuche": 3387,
  "\u2581leading": 3388,
  "\u2581listed": 3389,
  "\u2581manifest": 3390,
  "\u2581nabata": 3391,
  "\u2581praying": 3392,
  "\u2581authorities": 3393,
  "\u2581invitation": 3394,
  "\u2581train": 3395,
  "\u2581unique": 3396,
  "\u2581usoroiheomume": 3397,
  "\u2581\u1ecbz\u1ee5lite": 3398,
  "k": 3399,
  "\u2581assured": 3400,
  "\u2581careful": 3401,
  "\u2581create": 3402,
  "\u2581current": 3403,
  "\u2581drinking": 3404,
  "\u2581gba": 3405,
  "\u2581k\u1ee5r\u1ee5": 3406,
  "responsibilities": 3407,
  "\u2581element\u1ecb": 3408,
  "\u2581evident": 3409,
  "\u2581gosip\u1ee5ta": 3410,
  "\u2581moving": 3411,
  "\u2581patience": 3412,
  "\u2581prophecies": 3413,
  "ch": 3414,
  "\u2581African": 3415,
  "\u2581Deuteronomy": 3416,
  "\u2581H\u00e0": 3417,
  "\u2581ar\u1ee5k\u1ecd": 3418,
  "\u2581ar\u1ee5p\u1ee5ta": 3419,
  "\u2581carried": 3420,
  "\u2581join": 3421,
  "\u2581riri": 3422,
  "\u00f2t\u00f9": 3423,
  "\u2581Iri": 3424,
  "\u2581communication": 3425,
  "\u2581g\u1ecdzie": 3426,
  "\u2581nzuzu": 3427,
  "\u2581s\u1ecbga": 3428,
  "Alaeze": 3429,
  "like": 3430,
  "\u2581endurance": 3431,
  "\u2581mezuru": 3432,
  "\u2581Here": 3433,
  "\u2581Jeremaya": 3434,
  "\u2581al\u1ee5so": 3435,
  "\u2581gods": 3436,
  "\u2581\u1ecbgbaso": 3437,
  "\u2581master": 3438,
  "\u2581warm": 3439,
  "\u2581reached": 3440,
  "\u2581refers": 3441,
  "\u2581village": 3442,
  "For": 3443,
  "wokwa": 3444,
  "\u2581aspects": 3445,
  "\u2581attack": 3446,
  "\u2581dangerous": 3447,
  "\u2581global": 3448,
  "\u2581indicate": 3449,
  "\u2581secular": 3450,
  "nwu": 3451,
  "\u2581Exodus": 3452,
  "\u2581Think": 3453,
  "\u2581chose": 3454,
  "\u2581factors": 3455,
  "\u2581fee": 3456,
  "\u2581fruitage": 3457,
  "\u2581jeere": 3458,
  "There": 3459,
  "\u2581Babil\u1ecdn": 3460,
  "\u2581Readers": 3461,
  "\u2581WHAT": 3462,
  "\u2581kwur\u1ecbta": 3463,
  "\u2581loves": 3464,
  "\u2581subjects": 3465,
  "\u2581\u1ecd\u1e45\u1ee5\u1e45\u1ee5": 3466,
  "\u2581119": 3467,
  "\u2581circuit": 3468,
  "\u2581ikwere": 3469,
  "\u2581paragraf": 3470,
  "\u2581\u1ecbza": 3471,
  "Anya": 3472,
  "okpukpe": 3473,
  "\u2581studied": 3474,
  "\u258155": 3475,
  "\u2581ikuku": 3476,
  "\u2581main": 3477,
  "\u2581pleasure": 3478,
  "sara": 3479,
  "\u2581Without": 3480,
  "\u2581court": 3481,
  "\u2581creatures": 3482,
  "\u2581mgba": 3483,
  "\u2581mgbaghara": 3484,
  "\u2581setting": 3485,
  "\u2581advantage": 3486,
  "\u2581ijeri": 3487,
  "\u2581mej\u1ecdr\u1ecd": 3488,
  "\u2581race": 3489,
  "\u2581Me": 3490,
  "\u2581duzie": 3491,
  "it": 3492,
  "\u258141": 3493,
  "\u2581Mkp\u1ee5r\u1ee5": 3494,
  "\u2581Mother": 3495,
  "\u2581Niile": 3496,
  "\u2581Parents": 3497,
  "\u2581S\u1ecb": 3498,
  "\u2581bibiri": 3499,
  "\u2581effects": 3500,
  "\u2581goes": 3501,
  "\u2581normal": 3502,
  "2": 3503,
  "My": 3504,
  "\u2581Amaokwu": 3505,
  "\u2581dabara": 3506,
  "\u2581expressions": 3507,
  "\u2581insight": 3508,
  "\u2581ach\u1ecdta": 3509,
  "\u2581battle": 3510,
  "\u2581growth": 3511,
  "\u2581lies": 3512,
  "\u2581mechaa": 3513,
  "\u2581Times": 3514,
  "\u2581emotions": 3515,
  "\u2581lessons": 3516,
  "\u2581send": 3517,
  "\u2581Enwegh\u1ecb": 3518,
  "\u2581appears": 3519,
  "\u2581consideration": 3520,
  "\u2581correct": 3521,
  "\u2581garden": 3522,
  "\u2581notice": 3523,
  "\u2581opportunities": 3524,
  "\u2581\u1ee4m\u1ee5nna": 3525,
  "man": 3526,
  "\u2581<": 3527,
  "\u2581akaebe": 3528,
  "\u2581akp\u1ee5kp\u1ecd": 3529,
  "\u2581Book": 3530,
  "\u2581assist": 3531,
  "\u2581extent": 3532,
  "\u2581kwusaa": 3533,
  "\u2581ruuru": 3534,
  "\u2581Note": 3535,
  "\u2581Obere": 3536,
  "\u2581distress": 3537,
  "\u2581newspaper": 3538,
  "\u2581nlezianya": 3539,
  "\u2581saved": 3540,
  "All": 3541,
  "\u258126,": 3542,
  "\u2581extreme": 3543,
  "\u2581occur": 3544,
  "\u2581offspring": 3545,
  "\u2581secret": 3546,
  "L": 3547,
  "\u2581Nan\u1ecb": 3548,
  "\u2581overseers": 3549,
  "\u2581popular": 3550,
  "\u2581process": 3551,
  "\u2581t\u1ee5\u1ecd": 3552,
  "ozuzu": 3553,
  "\u2581format": 3554,
  "\u2581At\u1ecd": 3555,
  "\u2581International": 3556,
  "\u2581at\u1ee5gh\u1ecb": 3557,
  "\u2581p\u1ee5gh\u1ecb": 3558,
  "\u2581wealth": 3559,
  "\u2581German": 3560,
  "\u2581judge": 3561,
  "\u2581zealous": 3562,
  "\u2581\u00e8": 3563,
  "\u2581\u1ecbmalite": 3564,
  "\u25812012": 3565,
  "\u258142": 3566,
  "\u2581financial": 3567,
  "\u2581harvest": 3568,
  "\u2581research": 3569,
  "\u2581responded": 3570,
  "\u2581succeed": 3571,
  "\u2581Land": 3572,
  "\u2581color": 3573,
  "\u2581echi": 3574,
  "\u2581h\u1ecdr\u1ecd": 3575,
  "\u2581mature": 3576,
  "\u2581pattern": 3577,
  "\u2581essential": 3578,
  "\u2581gone": 3579,
  "\u2581oche": 3580,
  "F": 3581,
  "\u2581camp": 3582,
  "\u2581minds": 3583,
  "\u2581trained": 3584,
  "\u2581zitere": 3585,
  "\u2581\u1ecbnw\u1ee5": 3586,
  "\u2581daughters": 3587,
  "\u2581due": 3588,
  "\u2581emen\u1ee5": 3589,
  "\u2581enyo": 3590,
  "\u2581fell": 3591,
  "\u2581poverty": 3592,
  "\u2581\u1ecdgw\u1ee5gw\u1ecd": 3593,
  "\u2581aside": 3594,
  "\u2581conclude": 3595,
  "\u2581evidently": 3596,
  "\u2581pass": 3597,
  "\u2581temptation": 3598,
  "\u2581company": 3599,
  "\u2581mgbochi": 3600,
  "\u2581natara": 3601,
  "\u2581non": 3602,
  "\u2581wish": 3603,
  "amagh\u1ecb": 3604,
  "\u2581size": 3605,
  "3": 3606,
  "amaokwu": 3607,
  "\u2581Am\u1ee5ma": 3608,
  "\u2581Kwa": 3609,
  "\u2581eleghara": 3610,
  "\u2581jirikwa": 3611,
  "\u2581mountain": 3612,
  "\u2581spouse": 3613,
  "\u2581troubled": 3614,
  "\u2581wedding": 3615,
  "\u2581\u1ecdkp\u1ee5kp\u1ee5": 3616,
  "\u258112]": 3617,
  "\u2581ogbi": 3618,
  "\u2581series": 3619,
  "\u2581\u1ecdf\u1ee5\u1ee5": 3620,
  "\u2581Imagine": 3621,
  "\u2581assure": 3622,
  "\u2581ch\u1ecdtara": 3623,
  "\u2581ememme": 3624,
  "\u2581enyekwa": 3625,
  "\u2581receiving": 3626,
  "\u2581translated": 3627,
  "\u258148": 3628,
  "\u2581cancer": 3629,
  "\u2581eduga": 3630,
  "\u2581legal": 3631,
  "\u2581\u1ecdgba": 3632,
  "\u2581(3)": 3633,
  "\u25812002": 3634,
  "\u2581appearance": 3635,
  "\u2581island": 3636,
  "\u2581jik\u1ecdr\u1ecd": 3637,
  "\u2581purposes": 3638,
  "\u2581waiting": 3639,
  "Bekee": 3640,
  "\u2581George": 3641,
  "\u2581easier": 3642,
  "\u2581enemy": 3643,
  "\u2581shared": 3644,
  "ity": 3645,
  "\u2581History": 3646,
  "\u2581Learn": 3647,
  "\u2581belief": 3648,
  "\u2581decades": 3649,
  "\u2581Az\u1ecbza": 3650,
  "\u2581Open": 3651,
  "\u2581Regard": 3652,
  "\u2581closely": 3653,
  "\u2581economic": 3654,
  "\u2581honest": 3655,
  "\u2581kp\u1ecdlitere": 3656,
  "\u2581nk\u1ee5": 3657,
  "\u2581Bill": 3658,
  "\u2581Whe": 3659,
  "\u2581meal": 3660,
  "\u2581wetara": 3661,
  "\u2581Sometimes": 3662,
  "\u2581directed": 3663,
  "\u2581letters": 3664,
  "\u2581promote": 3665,
  "\u2581ruler": 3666,
  "\u2581Sad": 3667,
  "\u2581commandments": 3668,
  "\u2581decide": 3669,
  "\u2581drawn": 3670,
  "\u2581girls": 3671,
  "\u2581prophets": 3672,
  "\u2581s\u1ee5ghar\u1ecba": 3673,
  "\u2581tears": 3674,
  "ops": 3675,
  "ubi": 3676,
  "\u258125,": 3677,
  "\u2581afraid": 3678,
  "\u2581applied": 3679,
  "\u2581contrary": 3680,
  "\u2581mmeri": 3681,
  "\u2581pride": 3682,
  "\u2581relates": 3683,
  "\u2581religions": 3684,
  "\u2581slaves": 3685,
  "\u2581toro": 3686,
  "\u2581wide": 3687,
  "\u2581wutere": 3688,
  "\u2581abanye": 3689,
  "\u2581ezere": 3690,
  "\u2581forms": 3691,
  "\u2581ndes\u1ecbta": 3692,
  "\u2581\u1ecbnagide": 3693,
  "\u25818]": 3694,
  "\u2581Man": 3695,
  "Ha": 3696,
  "\u2581Ozi\u1ecdma": 3697,
  "\u2581cover": 3698,
  "\u2581ejikwa": 3699,
  "\u2581fish": 3700,
  "\u2581nkwanye": 3701,
  "What": 3702,
  "\u2581ONYE": 3703,
  "\u2581aid": 3704,
  "\u2581exist": 3705,
  "\u2581likewise": 3706,
  "\u2581\u00eds\u00ec": 3707,
  "\u2581Igbo": 3708,
  "\u2581ad\u1ecbchagh\u1ecb": 3709,
  "\u2581bearing": 3710,
  "\u2581determine": 3711,
  "\u2581ewep\u1ee5": 3712,
  "\u2581leaving": 3713,
  "\u2581thousand": 3714,
  "\u2581lasting": 3715,
  "\u2581reveals": 3716,
  "inye": 3717,
  "\u25812008": 3718,
  "\u2581Ochie": 3719,
  "\u2581workspace": 3720,
  "\u2581Soviet": 3721,
  "\u2581application": 3722,
  "\u2581constantly": 3723,
  "\u2581impressed": 3724,
  "\u2581leba": 3725,
  "\u2581thank": 3726,
  "\u258190": 3727,
  "\u2581Iso": 3728,
  "\u2581Sera": 3729,
  "\u2581committed": 3730,
  "\u2581crime": 3731,
  "\u2581depression": 3732,
  "\u2581endeavor": 3733,
  "\u2581facts": 3734,
  "\u2581increased": 3735,
  "\u2581map": 3736,
  "\u2581organized": 3737,
  "\u2581\u1ee4m\u1ee5aka": 3738,
  "\u2581\u1ee5b\u1ee5r\u1ee5": 3739,
  "\u1ecantanet": 3740,
  "\u1ee5m\u1ee5": 3741,
  "\u258129,": 3742,
  "\u2581NCHE": 3743,
  "\u2581Testament": 3744,
  "\u2581ad\u1ecbru": 3745,
  "\u2581akpatara": 3746,
  "\u2581cost": 3747,
  "\u2581immorality": 3748,
  "\u2581international": 3749,
  "\u2581joined": 3750,
  "\u2581object": 3751,
  "\u2581recently": 3752,
  "\u2581sees": 3753,
  "\u2581stopped": 3754,
  "\u00ecgw\u00e8": 3755,
  "\u2581Biblical": 3756,
  "\u2581View": 3757,
  "\u2581treated": 3758,
  "f": 3759,
  "\u2581China": 3760,
  "\u2581deeds": 3761,
  "\u2581hundreds": 3762,
  "\u2581instruction": 3763,
  "\u2581verses": 3764,
  "\u2581weta": 3765,
  "\u2581w\u1ecd": 3766,
  "\u2581\u1ecdw\u1ee5wa": 3767,
  "\u258134.": 3768,
  "\u2581anw\u1ee5\u1ecd": 3769,
  "\u2581deliver": 3770,
  "\u2581demons": 3771,
  "\u2581ehihie": 3772,
  "\u2581ekwugh\u1ecb": 3773,
  "\u2581feels": 3774,
  "p\u1ee5ta": 3775,
  "\u2581Kp\u1ee5g": 3776,
  "\u2581Protestant": 3777,
  "\u2581Spain": 3778,
  "\u2581akpar\u1ecbta": 3779,
  "\u2581bilie": 3780,
  "\u2581drive": 3781,
  "\u2581gere": 3782,
  "\u2581illustrate": 3783,
  "\u2581kill": 3784,
  "\u2581views": 3785,
  "\u2581\u1ecbh\u1ecdr\u1ecd": 3786,
  ":%": 3787,
  "H": 3788,
  "alaka": 3789,
  "\u1ee5gb\u1ecd": 3790,
  "\u2581Fero": 3791,
  "\u2581Nd\u1ecbozi": 3792,
  "\u2581reference": 3793,
  "Ezie": 3794,
  "\u25812003": 3795,
  "\u2581Ezigbo": 3796,
  "\u2581buy": 3797,
  "\u2581husbands": 3798,
  "\u2581neighbors": 3799,
  "ugwu": 3800,
  "\u2581bless": 3801,
  "\u2581indicates": 3802,
  "\u2581vidio": 3803,
  "\u2581wep\u1ee5": 3804,
  "h": 3805,
  "\u2581conflict": 3806,
  "\u2581habits": 3807,
  "\u2581leta": 3808,
  "\u2581level": 3809,
  "do": 3810,
  "\u2581Maria": 3811,
  "\u2581Spen": 3812,
  "\u2581beloved": 3813,
  "\u2581career": 3814,
  "\u2581heartfelt": 3815,
  "\u2581raise": 3816,
  "\u2581uju": 3817,
  "\u2581Give": 3818,
  "\u2581ideas": 3819,
  "\u2581jidere": 3820,
  "\u2581laghachi": 3821,
  "\u1ee5kp\u1ee5r\u1ee5": 3822,
  "\u2581Biko": 3823,
  "\u2581esigh\u1ecb": 3824,
  "\u2581Hav": 3825,
  "\u2581Study": 3826,
  "\u2581akpak\u1ecdr\u1ecbta": 3827,
  "\u2581animal": 3828,
  "\u2581dealing": 3829,
  "\u2581difference": 3830,
  "\u2581entered": 3831,
  "\u2581gafee": 3832,
  "\u2581kw\u1ee5": 3833,
  "\u2581rulership": 3834,
  "\u2581speaks": 3835,
  "\u2581trees": 3836,
  "\u2581trial": 3837,
  "\u2581Galatians": 3838,
  "\u2581ahazi": 3839,
  "\u2581b\u1ee5bu": 3840,
  "\u2581met\u1ee5ta": 3841,
  "\u2581nn\u1ecdk\u1ecd": 3842,
  "\u2581remove": 3843,
  "\u2581struggle": 3844,
  "k\u1ecdr\u1ecd": 3845,
  "meme": 3846,
  "\u2581Encyclopedia": 3847,
  "\u2581Spirit": 3848,
  "\u2581engage": 3849,
  "\u2581ezumike": 3850,
  "\u2581gold": 3851,
  "\u2581perform": 3852,
  "\u2581\u1ecbbanye": 3853,
  "\u2581\u1ecbk\u1ecdr\u1ecd": 3854,
  "el": 3855,
  "\u2581Michael": 3856,
  "\u2581eduhie": 3857,
  "\u2581seriously": 3858,
  "G": 3859,
  "kwagh\u1ecb": 3860,
  "z\u1ecd\u1ee5kw\u1ee5": 3861,
  "\u2581Farisii": 3862,
  "\u2581across": 3863,
  "\u2581desktop": 3864,
  "\u2581eternal": 3865,
  "\u2581outstanding": 3866,
  "\u2581powers": 3867,
  "\u2581rejected": 3868,
  "\u2581telling": 3869,
  "\u2581z\u1ee5r\u1ee5": 3870,
  "kwur\u1ecbta": 3871,
  "olu": 3872,
  "\u2581B\u00fa": 3873,
  "\u2581Go": 3874,
  "\u2581designed": 3875,
  "\u2581handle": 3876,
  "\u2581obtain": 3877,
  "\u2581recognized": 3878,
  "\u2581remains": 3879,
  "\u2581Ozizi": 3880,
  "\u2581displayed": 3881,
  "\u2581gabiga": 3882,
  "\u2581occurred": 3883,
  "\u2581performed": 3884,
  "\u2581rutere": 3885,
  "\u258143": 3886,
  "\u2581Both": 3887,
  "\u2581concluded": 3888,
  "\u2581emekar\u1ecb": 3889,
  "\u2581entertainment": 3890,
  "\u2581formed": 3891,
  "\u2581ichebe": 3892,
  "\u2581iju": 3893,
  "\u2581refer": 3894,
  "\u2581\u1ecdkw\u00e1": 3895,
  "ion": 3896,
  "ur": 3897,
  "\u2581At\u1ee5r\u1ee5": 3898,
  "\u2581Naomi": 3899,
  "\u2581nh\u1ecdr\u1ecd": 3900,
  "\u2581resolve": 3901,
  "\u2581undeserved": 3902,
  "\u2581N\u1ecd": 3903,
  "\u2581cares": 3904,
  "\u2581companions": 3905,
  "\u2581escape": 3906,
  "\u2581ibibi": 3907,
  "\u2581\u1ecbmatakwu": 3908,
  "\u2581Pharaoh": 3909,
  "\u2581beneficial": 3910,
  "\u2581dealings": 3911,
  "\u2581discovered": 3912,
  "\u2581faithfully": 3913,
  "\u2581inhabitants": 3914,
  "\u2581journey": 3915,
  "\u2581okpuru": 3916,
  "\u2581scriptures": 3917,
  "\u2581Israelite": 3918,
  "\u2581custom": 3919,
  "\u2581divorce": 3920,
  "\u2581emezi": 3921,
  "\u2581god": 3922,
  "ted": 3923,
  "\u2581Eme": 3924,
  "\u2581heavy": 3925,
  "\u2581nwed\u1ecbr\u1ecb": 3926,
  "\u2581va\u1ecbn": 3927,
  "\u2581Enwere": 3928,
  "\u2581Tesalona\u1ecbka": 3929,
  "\u2581Uche": 3930,
  "\u2581details": 3931,
  "\u2581stick": 3932,
  "\u2581\u00ecs\u00ec": 3933,
  "\u2581\u1eccp\u1ee5p\u1ee5": 3934,
  "\u2581\u1ecdd\u1ecbda": 3935,
  "m\u1ee5r\u1ee5": 3936,
  "\u2581Ezekiel": 3937,
  "\u2581ch\u1ecdta": 3938,
  "\u2581contribute": 3939,
  "\u2581persons": 3940,
  "\u2581style": 3941,
  "\u2581\u00e9gb\u00e8": 3942,
  "ment": 3943,
  "\u2581YA": 3944,
  "\u2581emek\u1ecd": 3945,
  "\u2581Krismas": 3946,
  "\u2581Micah": 3947,
  "\u2581ND\u1ee4": 3948,
  "\u2581connection": 3949,
  "\u2581freely": 3950,
  "\u2581nyekwara": 3951,
  "\u2581providing": 3952,
  "\u2581strengthened": 3953,
  "d\u1ecbr\u1ecb": 3954,
  "\u2581goodness": 3955,
  "\u2581healthy": 3956,
  "\u2581indicated": 3957,
  "\u2581listened": 3958,
  "\u2581nn\u1ee5n\u1ee5": 3959,
  "\u2581nr\u1ecd": 3960,
  "\u2581siworo": 3961,
  "\u2581theme": 3962,
  "\u25812011": 3963,
  "\u2581agafe": 3964,
  "\u2581ar\u1ee5r\u1ee5": 3965,
  "\u2581impossible": 3966,
  "\u2581lay": 3967,
  "an\u1ee5": 3968,
  "osisi": 3969,
  "\u2581A\u1ecbzik": 3970,
  "\u2581developing": 3971,
  "\u2581victims": 3972,
  "ruru": 3973,
  "\u2581K\u1ecdr": 3974,
  "\u2581d\u1ecbkwuo": 3975,
  "\u2581ikweta": 3976,
  "\u2581okpom\u1ecdk\u1ee5": 3977,
  "\u2581Ma\u1ecbka": 3978,
  "\u2581Poland": 3979,
  "\u2581forces": 3980,
  "\u2581gee": 3981,
  "\u2581primary": 3982,
  "\u2581Kas\u1ecb": 3983,
  "\u2581Russell": 3984,
  "\u2581darkness": 3985,
  "\u2581kas\u1ecbn\u1ee5": 3986,
  "\u258120]": 3987,
  "\u258180": 3988,
  "\u2581Christendom": 3989,
  "\u2581agbamakw\u1ee5kw\u1ecd": 3990,
  "\u2581air": 3991,
  "\u2581ejiji": 3992,
  "\u2581skills": 3993,
  "\u2581\u1ecbr\u1ecb\u1ecd": 3994,
  "\u2581\u1ecbt\u1ee5le": 3995,
  "\u2581HIV": 3996,
  "\u2581Ken": 3997,
  "\u2581Likewise": 3998,
  "\u2581Okpukpe": 3999,
  "\u2581degree": 4000,
  "\u2581enwee": 4001,
  "\u2581injustice": 4002,
  "\u2581sinful": 4003,
  "\u2581wuru": 4004,
  "\u2581zutere": 4005,
  "\u2581z\u1ecdp\u1ee5ta": 4006,
  "\u1ecdd\u1ecbiche": 4007,
  "\u2581Day": 4008,
  "\u2581Re": 4009,
  "\u2581az\u1ecdp\u1ee5ta": 4010,
  "\u2581ill": 4011,
  "\u2581leads": 4012,
  "\u2581safe": 4013,
  "\u2581\u1ee5k\u1ecd": 4014,
  "ne": 4015,
  "r\u1ecbcha": 4016,
  "\u2581Eden": 4017,
  "\u2581agbamume": 4018,
  "\u2581bond": 4019,
  "\u2581drug": 4020,
  "\u2581hatred": 4021,
  "\u2581satisfying": 4022,
  "\u2581separate": 4023,
  "\u2581sit": 4024,
  "\u2581spirituality": 4025,
  "\u258144": 4026,
  "\u2581Has": 4027,
  "\u2581applying": 4028,
  "\u2581assistance": 4029,
  "\u2581fon": 4030,
  "\u2581mbip\u1ee5ta": 4031,
  "\u2581mistakes": 4032,
  "\u2581released": 4033,
  "\u2581widow": 4034,
  "\u2581Kings": 4035,
  "\u2581wickedness": 4036,
  "gbagwoju": 4037,
  "\u2581Mosaic": 4038,
  "\u2581ended": 4039,
  "\u2581guzo": 4040,
  "\u2581quit": 4041,
  "\u2581survive": 4042,
  "\u2581worse": 4043,
  "k\u1ecd": 4044,
  "\u1ee5ba": 4045,
  "\u2581Explain": 4046,
  "\u2581Jonathan": 4047,
  "\u2581Students": 4048,
  "\u2581dozie": 4049,
  "\u2581kindly": 4050,
  "\u2581n\u1ecdkwa": 4051,
  "\u2581sought": 4052,
  "\u2581travel": 4053,
  "\u2581trouble": 4054,
  "\u2581wep\u1ee5ta": 4055,
  "\u2581Close": 4056,
  "\u2581eleta": 4057,
  "\u2581imezu": 4058,
  "\u2581path": 4059,
  "\u2581requirements": 4060,
  "\u2581superior": 4061,
  "malitere": 4062,
  "\u2581Its": 4063,
  "\u2581Jona": 4064,
  "\u2581couples": 4065,
  "\u2581edemede": 4066,
  "\u2581enyekwara": 4067,
  "\u2581osise": 4068,
  "\u2581zuo": 4069,
  "\u2581\u00faj\u00fa": 4070,
  "\u258116]": 4071,
  "\u258119]": 4072,
  "\u2581Naan\u1ecb": 4073,
  "\u2581Please": 4074,
  "\u2581chebara": 4075,
  "\u2581concerns": 4076,
  "\u2581ogige": 4077,
  "\u2581rise": 4078,
  "\u2581white": 4079,
  "\u258139": 4080,
  "\u2581gathered": 4081,
  "\u2581mountains": 4082,
  "\u2581nup\u1ee5": 4083,
  "\u2581nwekwuo": 4084,
  "\u2581writes": 4085,
  "\u258127]": 4086,
  "\u2581Galeshia": 4087,
  "\u2581Nathan": 4088,
  "\u2581News": 4089,
  "\u2581abundance": 4090,
  "\u2581dear": 4091,
  "\u2581directly": 4092,
  "\u2581governments": 4093,
  "\u2581kpebisiri": 4094,
  "\u2581upright": 4095,
  "ce": 4096,
  "ohu": 4097,
  "\u2581Earth": 4098,
  "\u2581Ego": 4099,
  "\u2581Judas": 4100,
  "\u2581Map": 4101,
  "\u2581Papa": 4102,
  "\u2581grown": 4103,
  "\u2581higher": 4104,
  "\u2581highly": 4105,
  "un": 4106,
  "\u2581Boaz": 4107,
  "\u2581as\u1ecd": 4108,
  "\u2581fearing": 4109,
  "\u2581guzobere": 4110,
  "\u2581ntak\u1ecbr\u1ecb": 4111,
  "\u2581population": 4112,
  "U": 4113,
  "\u2581blind": 4114,
  "\u2581delivered": 4115,
  "\u2581gw\u1ecd\u1ecd": 4116,
  "\u2581igbochi": 4117,
  "\u2581kp\u1ecdlite": 4118,
  "\u2581national": 4119,
  "\u2581nweela": 4120,
  "\u2581p": 4121,
  "\u2581scholars": 4122,
  "ive": 4123,
  "\u2581agagh\u1ecbkwa": 4124,
  "\u2581construction": 4125,
  "\u2581exists": 4126,
  "\u2581hospital": 4127,
  "\u2581idebe": 4128,
  "\u2581sword": 4129,
  "\u2581tender": 4130,
  "\u2581united": 4131,
  "\u2581\u1ecbt\u1ee5nanya": 4132,
  "\u2581Z": 4133,
  "\u2581l\u1ecdta": 4134,
  "\u2581recalls": 4135,
  "\u2581vast": 4136,
  "\u2581\u1ecbch\u1ee5\u00e0j\u00e0": 4137,
  "\u1ee5t\u1ee5t\u1ee5": 4138,
  "\u2581am\u1ee5ba": 4139,
  "\u2581count": 4140,
  "\u2581keeps": 4141,
  "\u2581r\u1ee5": 4142,
  "\u2581\u1eccd\u1ecbda": 4143,
  "1": 4144,
  "4": 4145,
  "\u2581Never": 4146,
  "\u2581okpukpu": 4147,
  "\u2581potential": 4148,
  "ili": 4149,
  "\u2581emeri": 4150,
  "\u2581empty": 4151,
  "\u2581unable": 4152,
  "\u2581yes": 4153,
  "p\u1ee5tara": 4154,
  "\u258127,": 4155,
  "\u2581grief": 4156,
  "\u2581gw\u1ee5r\u1ee5": 4157,
  "\u2581set\u1ecbp\u1ee5r\u1ee5": 4158,
  "Iwu": 4159,
  "kwanyere": 4160,
  "\u258111]": 4161,
  "\u2581Nehemiah": 4162,
  "\u2581aspect": 4163,
  "\u2581severe": 4164,
  "\u2581touched": 4165,
  "Aka": 4166,
  "\u2581ach\u1ecdsi": 4167,
  "\u2581acted": 4168,
  "\u2581anara": 4169,
  "\u2581center": 4170,
  "\u2581copies": 4171,
  "\u2581ejikar\u1ecb": 4172,
  "\u2581granted": 4173,
  "\u2581machibidoro": 4174,
  "\u2581ministers": 4175,
  "\u2581prophetic": 4176,
  "\u2581rules": 4177,
  "ebemkpofuozi": 4178,
  "ry": 4179,
  "\u2581amaala": 4180,
  "\u2581conventions": 4181,
  "\u2581grasp": 4182,
  "\u2581mepere": 4183,
  "\u2581moment": 4184,
  "\u2581Esther": 4185,
  "\u2581access": 4186,
  "\u2581d\u1ecbka": 4187,
  "\u2581j\u1ecd": 4188,
  "\u2581meditate": 4189,
  "\u2581writings": 4190,
  "go": 4191,
  "\u2581Asia": 4192,
  "\u2581Every": 4193,
  "\u2581Krisend\u1ecdm": 4194,
  "\u2581Nso": 4195,
  "\u2581William": 4196,
  "\u2581describe": 4197,
  "\u2581determination": 4198,
  "\u2581low": 4199,
  "\u2581meriri": 4200,
  "\u2581ozuzo": 4201,
  "\u2581significant": 4202,
  "\u2581\u00c0": 4203,
  "\u2581adults": 4204,
  "\u2581an\u1ecdwo": 4205,
  "\u2581cry": 4206,
  "\u2581culture": 4207,
  "\u2581emo": 4208,
  "\u2581ruin": 4209,
  "\u2581slow": 4210,
  "\u2581surprise": 4211,
  "\u2581Don": 4212,
  "\u2581ch\u1ecbr\u1ecb": 4213,
  "\u2581herself": 4214,
  "\u2581load": 4215,
  "\u2581magazines": 4216,
  "\u2581provisions": 4217,
  "\u2581relationships": 4218,
  "\u2581rite": 4219,
  "\u2581useful": 4220,
  "\u2581witnessing": 4221,
  "\u2581\u1ee5l\u1ecdikwuu": 4222,
  "Jesus": 4223,
  "inwe": 4224,
  "\u2581Jonah": 4225,
  "\u2581considering": 4226,
  "\u2581entitled": 4227,
  "\u2581fit": 4228,
  "\u2581kwuwe": 4229,
  "\u2581lying": 4230,
  "\u2581solution": 4231,
  "\u2581t\u1ee5lere": 4232,
  "\u2581\u1e45\u1ee5r\u1ecba": 4233,
  "\u1ecdkw\u00e1": 4234,
  "\u25814]": 4235,
  "\u2581iwep\u1ee5": 4236,
  "\u2581mighty": 4237,
  "\u2581phone": 4238,
  "\u2581pointed": 4239,
  "\u2581terms": 4240,
  "\u2581willingly": 4241,
  "\u2581\u1ecbdabere": 4242,
  "r\u1ecbta": 4243,
  "\u258134,": 4244,
  "\u2581Sameria": 4245,
  "\u2581Table": 4246,
  "\u2581causing": 4247,
  "\u2581heed": 4248,
  "\u2581ibute": 4249,
  "\u2581involve": 4250,
  "\u2581occasions": 4251,
  "\u2581total": 4252,
  "\u2581waters": 4253,
  "co": 4254,
  "\u2581agbasi": 4255,
  "\u2581belong": 4256,
  "\u2581boro": 4257,
  "\u2581ch\u1ee5": 4258,
  "\u2581compared": 4259,
  "\u2581mewe": 4260,
  "\u2581rebellion": 4261,
  "\u2581task": 4262,
  "\u2581tozuru": 4263,
  "\u2581wars": 4264,
  "chaa": 4265,
  "\u25813]": 4266,
  "\u2581Kenan": 4267,
  "\u2581beauty": 4268,
  "\u2581d\u1ee5r\u1ee5": 4269,
  "\u2581numerous": 4270,
  "\u2581Mata": 4271,
  "\u2581Ole": 4272,
  "\u2581Second": 4273,
  "\u2581enwu": 4274,
  "\u2581reject": 4275,
  "\u2581serves": 4276,
  "at": 4277,
  "\u258130,": 4278,
  "\u2581Health": 4279,
  "\u2581Know": 4280,
  "\u2581bed": 4281,
  "\u2581physically": 4282,
  "\u2581reminded": 4283,
  "\u2581walked": 4284,
  "al\u1ee5mdi": 4285,
  "\u2581Ns\u1ee5ghar\u1ecb": 4286,
  "\u2581boys": 4287,
  "\u2581carrying": 4288,
  "\u2581joyful": 4289,
  "\u2581rights": 4290,
  "\u2581\u00d3": 4291,
  "\u2581\u1ecdch\u1ecbch\u1ecbr\u1ecb": 4292,
  "da": 4293,
  "out": 4294,
  "\u2581Answer": 4295,
  "\u2581Knorr": 4296,
  "\u2581Malite": 4297,
  "\u2581ark": 4298,
  "\u2581eager": 4299,
  "\u2581ekpughe": 4300,
  "\u2581opposite": 4301,
  "\u2581supported": 4302,
  "\u25812010": 4303,
  "\u2581La": 4304,
  "\u2581akw\u1ecd": 4305,
  "\u2581chief": 4306,
  "\u2581comforting": 4307,
  "\u2581marry": 4308,
  "\u2581pleased": 4309,
  "M\u1ee5": 4310,
  "\u2581Contents": 4311,
  "\u2581fere": 4312,
  "\u2581kwado": 4313,
  "\u2581soldiers": 4314,
  "\u2581top": 4315,
  "Olee": 4316,
  "nu": 4317,
  "ver": 4318,
  "\u00e0gw\u00e0": 4319,
  "\u2581COVER": 4320,
  "\u2581Charles": 4321,
  "\u2581Name": 4322,
  "\u2581Tract": 4323,
  "\u2581agbara": 4324,
  "\u2581familiar": 4325,
  "\u2581gbaghara": 4326,
  "\u2581instructions": 4327,
  "\u2581sikwa": 4328,
  "\u2581tax": 4329,
  "\u2581\u1ee4kp\u1ee5r\u1ee5": 4330,
  "ba": 4331,
  "\u25812013": 4332,
  "\u2581B\u1ecba": 4333,
  "\u2581appreciated": 4334,
  "\u2581capital": 4335,
  "\u2581critical": 4336,
  "\u2581f\u1ecdd\u1ee5r\u1ee5": 4337,
  "\u2581happens": 4338,
  "\u2581hoo": 4339,
  "\u2581private": 4340,
  "\u2581selfish": 4341,
  "Keep": 4342,
  "draw": 4343,
  "for": 4344,
  "nta": 4345,
  "\u00e8z\u00ed": 4346,
  "\u2581BE": 4347,
  "\u2581East": 4348,
  "\u2581Nigerian": 4349,
  "\u2581mesiri": 4350,
  "\u2581reaction": 4351,
  "\u2581\u1ecbgbaghara": 4352,
  "\u2581\u1ecbkp\u1ecdas\u1ecb": 4353,
  "\u258144.": 4354,
  "\u2581ANY\u1eca": 4355,
  "\u2581Abram": 4356,
  "\u2581Egwu": 4357,
  "\u2581Union": 4358,
  "\u2581anxious": 4359,
  "\u2581attendance": 4360,
  "\u2581ebili": 4361,
  "\u2581finding": 4362,
  "\u2581mahadum": 4363,
  "\u2581mgbasa": 4364,
  "\u2581privileges": 4365,
  "\u2581remarkable": 4366,
  "\u2581successfully": 4367,
  "egosi": 4368,
  "ling": 4369,
  "\u25812009": 4370,
  "\u2581British": 4371,
  "\u2581Prov": 4372,
  "\u2581Recall": 4373,
  "\u2581akar\u1ecb": 4374,
  "\u2581damage": 4375,
  "\u2581discern": 4376,
  "\u2581eketa": 4377,
  "\u2581kwara": 4378,
  "\u2581nearby": 4379,
  "\u2581stake": 4380,
  "\u2581weak": 4381,
  "\u2581\u1ecbch\u1ecbkwa": 4382,
  "\u25812004": 4383,
  "\u2581Panel": 4384,
  "\u2581allows": 4385,
  "\u2581apart": 4386,
  "\u2581forced": 4387,
  "\u2581item": 4388,
  "\u2581manager": 4389,
  "\u2581mkpesa": 4390,
  "\u2581require": 4391,
  "\u2581resources": 4392,
  "\u2581volume": 4393,
  "\u2581\u1ecbnabata": 4394,
  "\u2581G\u1eca": 4395,
  "\u2581Meza\u1ecba": 4396,
  "\u2581UN": 4397,
  "\u2581belata": 4398,
  "\u2581hate": 4399,
  "\u2581miracles": 4400,
  "\u2581offers": 4401,
  "\u2581per": 4402,
  "\u2581treasure": 4403,
  "\u2581\u1eccn\u1ecdd\u1ee5": 4404,
  "liri": 4405,
  "\u2581Armageddon": 4406,
  "\u2581Iju": 4407,
  "\u2581Nations": 4408,
  "\u2581ab\u1ee5kar\u1ecb": 4409,
  "\u2581b\u1ee5zi": 4410,
  "\u2581gbochie": 4411,
  "\u2581mgbidi": 4412,
  "\u2581official": 4413,
  "Ma": 4414,
  "\u25811919": 4415,
  "\u2581Christmas": 4416,
  "\u2581Ezikiel": 4417,
  "\u2581Out": 4418,
  "\u2581Republic": 4419,
  "\u2581ab\u1ee5kwa": 4420,
  "\u2581brain": 4421,
  "\u2581brochure": 4422,
  "\u2581b\u1ecdt\u1ecbn": 4423,
  "\u2581ch\u1ecba": 4424,
  "\u2581debe": 4425,
  "\u2581ikere": 4426,
  "\u2581motivated": 4427,
  "\u2581nh\u1ee5juanya": 4428,
  "\u2581nup\u1ee5r\u1ee5": 4429,
  "\u2581sickness": 4430,
  "Look": 4431,
  "lata": 4432,
  "were": 4433,
  "w\u1ee5wa": 4434,
  "\u2581bodies": 4435,
  "\u2581commission": 4436,
  "\u2581differ": 4437,
  "\u2581iwep\u1ee5ta": 4438,
  "\u2581mita": 4439,
  "\u2581season": 4440,
  "\u2581silver": 4441,
  "lt\u1ee5": 4442,
  "nwenwu": 4443,
  "\u2581Obodo": 4444,
  "\u2581angry": 4445,
  "\u2581approached": 4446,
  "\u2581balanced": 4447,
  "\u2581computer": 4448,
  "\u2581inner": 4449,
  "\u2581paid": 4450,
  "\u2581replied": 4451,
  "\u2581\u1ecaga": 4452,
  "ED": 4453,
  "\u2581challenging": 4454,
  "\u2581dangers": 4455,
  "\u2581ite": 4456,
  "\u2581minutes": 4457,
  "\u2581mp\u1ecbak\u1ecdta": 4458,
  "\u2581rendered": 4459,
  "\u2581surprised": 4460,
  "\u2581wilderness": 4461,
  "ksp\u00e9\u00e8s\u00ec": 4462,
  "\u258146": 4463,
  "\u2581Look": 4464,
  "\u2581additional": 4465,
  "\u2581kwup\u1ee5tara": 4466,
  "\u2581mildness": 4467,
  "\u2581peaceful": 4468,
  "\u2581pornography": 4469,
  "\u2581variety": 4470,
  "\u2581\u1ecdk\u1ecd": 4471,
  "Intanet": 4472,
  "\u2581agagh\u1ecbzi": 4473,
  "\u2581akp\u1ecdsa": 4474,
  "\u2581factor": 4475,
  "\u2581mesoo": 4476,
  "\u2581\u1e45omie": 4477,
  "\u2581Ezra": 4478,
  "\u2581below": 4479,
  "\u2581ebelata": 4480,
  "\u2581echekwa": 4481,
  "\u2581ijuanya": 4482,
  "\u2581meaningful": 4483,
  "\u2581resulted": 4484,
  "\u2581straight": 4485,
  "\u2581worshipers": 4486,
  "Ala": 4487,
  "ine": 4488,
  "\u2581content": 4489,
  "\u2581g\u1ecdziri": 4490,
  "\u2581ikiri": 4491,
  "\u2581majority": 4492,
  "\u2581mmezu": 4493,
  "\u2581nt\u1ecdala": 4494,
  "\u2581nweere": 4495,
  "\u2581Benin": 4496,
  "\u2581Hannah": 4497,
  "\u2581calling": 4498,
  "\u2581clothing": 4499,
  "\u2581failure": 4500,
  "\u2581harmful": 4501,
  "\u2581none": 4502,
  "\u2581release": 4503,
  "\u2581standard": 4504,
  "\u2581throne": 4505,
  "\u2581\u1ecbt\u1ee5ghar\u1ecb": 4506,
  "\u2581Liva\u1ecb": 4507,
  "\u2581Mahadum": 4508,
  "\u2581NW": 4509,
  "\u2581Oleekwa": 4510,
  "\u2581accomplished": 4511,
  "\u2581agreed": 4512,
  "\u2581akwalite": 4513,
  "\u2581development": 4514,
  "\u2581hidden": 4515,
  "\u2581inheritance": 4516,
  "\u2581reaching": 4517,
  "\u2581region": 4518,
  "\u2581sad": 4519,
  "\u2581secure": 4520,
  "\u00e9": 4521,
  "\u2581Hosea": 4522,
  "\u2581Paris": 4523,
  "\u2581assembly": 4524,
  "\u2581firmly": 4525,
  "\u2581oghe": 4526,
  "\u2581relations": 4527,
  "\u2581stood": 4528,
  "\u2581won": 4529,
  "ary": 4530,
  "pe": 4531,
  "wara": 4532,
  "\u2581focused": 4533,
  "\u2581hair": 4534,
  "\u2581ng\u1ecdng\u1ecd": 4535,
  "\u2581noticed": 4536,
  "\u2581shepherds": 4537,
  "\u2581viewpoint": 4538,
  "G\u1ecbn\u1ecb": 4539,
  "\u2581Ba": 4540,
  "\u2581fast": 4541,
  "\u2581houses": 4542,
  "\u2581identified": 4543,
  "\u2581kwaga": 4544,
  "\u2581stone": 4545,
  "but": 4546,
  "ezigbo": 4547,
  "\u2581Mepee": 4548,
  "\u2581constant": 4549,
  "\u2581gbal\u1ecbr\u1ecb": 4550,
  "\u2581images": 4551,
  "\u2581nine": 4552,
  "\u2581quick": 4553,
  "\u2581refuge": 4554,
  "\u2581suggestions": 4555,
  "\u2581traveled": 4556,
  "\u2581\u25c6": 4557,
  "\u2581SI": 4558,
  "\u2581add": 4559,
  "\u2581ekwere": 4560,
  "\u2581exactly": 4561,
  "\u2581hiwere": 4562,
  "\u2581motivate": 4563,
  "\u2581rain": 4564,
  "\u2581turning": 4565,
  "\u2581adultery": 4566,
  "\u2581attribute": 4567,
  "\u2581chapters": 4568,
  "\u2581cold": 4569,
  "\u2581deaf": 4570,
  "\u2581odeakw\u1ee5kw\u1ecd": 4571,
  "\u2581provision": 4572,
  "\u2581supply": 4573,
  "\u2581visible": 4574,
  "se": 4575,
  "\u0304": 4576,
  "\u2581Chi": 4577,
  "\u2581FOR": 4578,
  "\u2581Halls": 4579,
  "\u2581Ministry": 4580,
  "\u2581Nri": 4581,
  "\u2581Nwany\u1ecb": 4582,
  "\u2581apparently": 4583,
  "\u2581k": 4584,
  "\u2581male": 4585,
  "\u2581proof": 4586,
  "\u2581reputation": 4587,
  "\u2581visiting": 4588,
  "ever": 4589,
  "\u2581Visit": 4590,
  "\u2581Whatever": 4591,
  "\u2581arranged": 4592,
  "\u2581dwell": 4593,
  "\u2581enwekar\u1ecb": 4594,
  "\u2581gradually": 4595,
  "\u2581gratitude": 4596,
  "\u2581idozi": 4597,
  "\u2581ikpere": 4598,
  "\u2581j\u1ee5\u1ee5": 4599,
  "\u2581laghachiri": 4600,
  "\u2581mebiri": 4601,
  "\u2581yi": 4602,
  "\u2581z\u1ee5lite": 4603,
  "\u2581Am": 4604,
  "\u2581Udo": 4605,
  "\u2581churches": 4606,
  "\u2581fornication": 4607,
  "\u2581indefinite": 4608,
  "\u2581influenced": 4609,
  "\u2581inhabited": 4610,
  "\u2581nro": 4611,
  "\u2581rely": 4612,
  "\u2581s\u1ecbkwa": 4613,
  "\u2581Olileanya": 4614,
  "\u2581Sam": 4615,
  "\u2581akwara": 4616,
  "\u2581model": 4617,
  "\u2581ndehie": 4618,
  "\u2581proud": 4619,
  "\u2581qualified": 4620,
  "\u2581\u2191": 4621,
  "How": 4622,
  "ism": 4623,
  "\u2581Find": 4624,
  "\u2581Him": 4625,
  "\u2581Surely": 4626,
  "\u2581ch\u1ecdkwara": 4627,
  "\u2581dap\u1ee5": 4628,
  "\u2581d\u1ecbkar\u1ecba": 4629,
  "\u2581d\u1ecd\u1ecd": 4630,
  "\u2581huge": 4631,
  "\u2581science": 4632,
  "\u2581screen": 4633,
  "\u2581writers": 4634,
  "t\u1ee5r\u1ee5": 4635,
  "\u1ecdbara": 4636,
  "\u25811998": 4637,
  "\u258138.": 4638,
  "\u258139.": 4639,
  "\u2581agara": 4640,
  "\u2581akwadebe": 4641,
  "\u2581generation": 4642,
  "\u2581link": 4643,
  "\u2581plan": 4644,
  "\u2581valid": 4645,
  "\u2581victim": 4646,
  "7": 4647,
  "de": 4648,
  "ia": 4649,
  "\u1ee4z\u1ecd": 4650,
  "\u2581Flood": 4651,
  "\u2581Hana": 4652,
  "\u2581Thessalonians": 4653,
  "\u2581arise": 4654,
  "\u2581observes": 4655,
  "\u2581properly": 4656,
  "\u2581sinned": 4657,
  "As": 4658,
  "\u2581L\u1ecdt": 4659,
  "\u2581MA": 4660,
  "\u2581abata": 4661,
  "\u2581bata": 4662,
  "\u2581magh\u1ecb": 4663,
  "\u2581meela": 4664,
  "\u2581mild": 4665,
  "\u2581mothers": 4666,
  "\u2581nap\u1ee5ta": 4667,
  "\u2581otherwise": 4668,
  "\u2581root": 4669,
  "6": 4670,
  "um": 4671,
  "\u1ecdk\u1ee5": 4672,
  "\u2581Mgbak\u1ecd": 4673,
  "\u2581Trash": 4674,
  "\u2581abandoned": 4675,
  "\u2581amanye": 4676,
  "\u2581demonstrated": 4677,
  "\u2581wind": 4678,
  "one": 4679,
  "\u2581Mama": 4680,
  "\u2581Pharisees": 4681,
  "\u2581asa": 4682,
  "\u2581hundred": 4683,
  "\u2581kwenye": 4684,
  "\u2581modest": 4685,
  "\u2581plant": 4686,
  "\u2581represent": 4687,
  "\u2581weight": 4688,
  "\u2581Almighty": 4689,
  "\u2581Promised": 4690,
  "\u2581Use": 4691,
  "\u2581deskt\u1ecd": 4692,
  "\u2581dream": 4693,
  "\u2581encourages": 4694,
  "\u2581onyinyo": 4695,
  "\u2581plans": 4696,
  "\u2581played": 4697,
  "\u2581shuga": 4698,
  "\u2581specified": 4699,
  "\u2581\u1ee5cha": 4700,
  "chagh\u1ecb": 4701,
  "ghachiri": 4702,
  "\u2581Eventually": 4703,
  "\u2581declare": 4704,
  "\u2581thereafter": 4705,
  "They": 4706,
  "\u00f3k\u00e8ala": 4707,
  "\u258137.": 4708,
  "\u2581Heb": 4709,
  "\u2581Lazar\u1ecds": 4710,
  "\u2581Lot": 4711,
  "\u2581accompany": 4712,
  "\u2581commit": 4713,
  "\u2581contained": 4714,
  "\u2581ju": 4715,
  "\u2581kwadebe": 4716,
  "\u2581store": 4717,
  "\u2581television": 4718,
  "will": 4719,
  "\u2581Granted": 4720,
  "\u2581Women": 4721,
  "\u2581abundant": 4722,
  "\u2581difficulties": 4723,
  "\u2581dignity": 4724,
  "\u2581kar\u1ecbchaa": 4725,
  "\u2581ngw\u1ecdta": 4726,
  "\u2581sang": 4727,
  "\u2581session": 4728,
  "\u2581trip": 4729,
  "\u2581B\u1ee4": 4730,
  "\u2581Doing": 4731,
  "\u2581Often": 4732,
  "\u2581anakwere": 4733,
  "\u2581kii": 4734,
  "\u2581kpata": 4735,
  "\u2581met\u1ee5r\u1ee5": 4736,
  "\u2581ntaramah\u1ee5h\u1ee5": 4737,
  "\u2581nwara": 4738,
  "\u2581punishment": 4739,
  "Amer\u1ecbka": 4740,
  "not": 4741,
  "pagharaogologo": 4742,
  "\u2581Joel": 4743,
  "\u2581Mban\u1ee5": 4744,
  "\u2581Nwaany\u1ecb": 4745,
  "\u2581Zechariah": 4746,
  "\u2581balance": 4747,
  "\u2581clothes": 4748,
  "\u2581icons": 4749,
  "\u2581nt\u1ee5": 4750,
  "\u2581n\u1ecdnyeere": 4751,
  "\u2581readily": 4752,
  "\u2581reflected": 4753,
  "\u2581signs": 4754,
  "\u2581\u1ee5z\u1ee5": 4755,
  "5": 4756,
  "Nke": 4757,
  "\u25811990": 4758,
  "\u2581Aaron": 4759,
  "\u2581Columbia": 4760,
  "\u2581Pentik\u1ecdst": 4761,
  "\u2581associate": 4762,
  "\u2581attempt": 4763,
  "\u2581excellent": 4764,
  "\u2581mention": 4765,
  "\u2581methods": 4766,
  "\u2581printed": 4767,
  "\u2581services": 4768,
  "\u2581suicide": 4769,
  "\u2581tee": 4770,
  "\u2581w\u1ecdkspeesi": 4771,
  "\u2581\u1ecbla": 4772,
  "\u2581\u1ecdn\u1ee5n\u1ecd": 4773,
  "\u2581Izu": 4774,
  "\u2581Maara": 4775,
  "\u2581Pentecost": 4776,
  "\u2581courageous": 4777,
  "\u2581disaster": 4778,
  "\u2581ezuru": 4779,
  "\u2581plague": 4780,
  "\u2581\u1ecbs\u1ecb": 4781,
  "mkp\u1ee5r\u1ee5": 4782,
  "\u1ee4wa": 4783,
  "\u2581(%": 4784,
  "\u2581Pet": 4785,
  "\u2581agbawa": 4786,
  "\u2581companion": 4787,
  "\u2581dwelling": 4788,
  "\u2581exert": 4789,
  "\u258131,": 4790,
  "\u2581Gospels": 4791,
  "\u2581nleta": 4792,
  "\u2581owuwu": 4793,
  "\u2581remaining": 4794,
  "\u2581\u1ecbk\u1ecdwa": 4795,
  "com": 4796,
  "mgbe": 4797,
  "\u25811997": 4798,
  "\u258172": 4799,
  "\u2581agaghar\u1ecb": 4800,
  "\u2581attitudes": 4801,
  "\u2581communicate": 4802,
  "\u2581ekpo": 4803,
  "\u2581holding": 4804,
  "\u2581marvelous": 4805,
  "\u2581\u1ecdkwa": 4806,
  "ad\u1ecbgh\u1ecb": 4807,
  "\u2581European": 4808,
  "\u2581chewe": 4809,
  "\u2581ch\u1ecdgh\u1ecb": 4810,
  "\u2581discouraged": 4811,
  "\u2581diseases": 4812,
  "\u2581kw\u1ee5\u1ecd": 4813,
  "\u2581ought": 4814,
  "\u2581routine": 4815,
  "\u2581team": 4816,
  "\u2581tiri": 4817,
  "\u2581\u1ecdz\u1ecdkwa": 4818,
  "\u2581Hib": 4819,
  "\u2581Luther": 4820,
  "\u2581Messianic": 4821,
  "\u2581Nd\u1ee5m\u1ecdd\u1ee5": 4822,
  "\u2581facing": 4823,
  "\u2581invite": 4824,
  "\u2581repeatedly": 4825,
  "\u2581rulers": 4826,
  "\u2581wondered": 4827,
  "\u2581\u1ecdla\u1ecdcha": 4828,
  "\u00f2": 4829,
  "\u2581B\u1ee5r\u1ee5": 4830,
  "\u2581Window": 4831,
  "\u2581acknowledge": 4832,
  "\u2581advance": 4833,
  "\u2581choices": 4834,
  "\u2581corruption": 4835,
  "\u2581ekpuchi": 4836,
  "\u2581ito": 4837,
  "\u2581running": 4838,
  "\u2581\u00f2nye": 4839,
  "\u2581Elisha": 4840,
  "\u2581dochie": 4841,
  "\u2581memory": 4842,
  "\u2581nk\u1ecd": 4843,
  "\u2581preced": 4844,
  "\u2581ruling": 4845,
  "\u2581\u1eccb\u1ee5": 4846,
  "buru": 4847,
  "\u1ecdd\u1ee5": 4848,
  "\u2581200": 4849,
  "\u258126]": 4850,
  "\u2581Cain": 4851,
  "\u2581Chronicles": 4852,
  "\u2581Upon": 4853,
  "\u2581audience": 4854,
  "\u2581average": 4855,
  "\u2581broken": 4856,
  "\u2581caught": 4857,
  "\u2581customs": 4858,
  "\u2581recall": 4859,
  "\u2581union": 4860,
  "\u2581weapons": 4861,
  "\u2581\u1ecdla": 4862,
  "\u2581Draw": 4863,
  "\u2581Trac": 4864,
  "\u2581West": 4865,
  "\u2581ab\u1ee5r\u1ecbr\u1ecb": 4866,
  "\u2581broke": 4867,
  "\u2581compare": 4868,
  "\u2581conducted": 4869,
  "\u2581employment": 4870,
  "\u2581kwaa": 4871,
  "\u2581lifestyle": 4872,
  "\u2581officials": 4873,
  "\u2581pre": 4874,
  "\u2581reasoning": 4875,
  "\u2581rube": 4876,
  "\u2581suggest": 4877,
  "\u258136.": 4878,
  "\u2581THIS": 4879,
  "\u2581completed": 4880,
  "\u2581ekwukwa": 4881,
  "\u2581gbaara": 4882,
  "\u2581habit": 4883,
  "\u2581jup\u1ee5ta": 4884,
  "\u2581mmegbu": 4885,
  "\u2581newly": 4886,
  "\u2581referring": 4887,
  "\u2581refuse": 4888,
  "\u2581stars": 4889,
  "\u2581\u1ecala\u1ecbsha": 4890,
  "\u2581\u1ecbkwado": 4891,
  "\u2581\u1ecbnakwere": 4892,
  "os": 4893,
  "\u2581144,000": 4894,
  "\u2581calm": 4895,
  "\u2581credit": 4896,
  "\u2581ezisa": 4897,
  "\u2581identity": 4898,
  "\u2581ignore": 4899,
  "\u2581ileghara": 4900,
  "\u2581invisible": 4901,
  "\u2581render": 4902,
  "\u2581represented": 4903,
  "\u2581t\u1ecd": 4904,
  "\u2581\u1e45\u1ee5\u1ecd": 4905,
  "\u2581Enyi": 4906,
  "\u2581Sanhedrin": 4907,
  "\u2581Scripture": 4908,
  "\u2581Stephen": 4909,
  "\u2581acting": 4910,
  "\u2581ak\u1ee5n\u1ee5ba": 4911,
  "\u2581billion": 4912,
  "\u2581egbo": 4913,
  "\u2581egosikwa": 4914,
  "\u2581ncheghar\u1ecb": 4915,
  "\u2581nw\u1ee5s\u1ecbr\u1ecb": 4916,
  "\u2581permissions": 4917,
  "\u2581scholar": 4918,
  "\u2581slavery": 4919,
  "\u2581speaker": 4920,
  "\u2581wall": 4921,
  "\u2581worthy": 4922,
  "Ya": 4923,
  "\u2581Committee": 4924,
  "\u2581altar": 4925,
  "\u2581assignments": 4926,
  "\u2581conscious": 4927,
  "\u2581faithfulness": 4928,
  "\u2581kelee": 4929,
  "\u2581lek\u1ecdta": 4930,
  "\u2581scene": 4931,
  "ghar\u1ecb": 4932,
  "ghar\u1ecba": 4933,
  "nye": 4934,
  "\u00d2t\u00f9": 4935,
  "\u2581Sovereign": 4936,
  "\u2581Truth": 4937,
  "\u2581admonition": 4938,
  "\u2581figurative": 4939,
  "\u2581kwegh\u1ecb": 4940,
  "\u2581labor": 4941,
  "\u2581trade": 4942,
  "\u2581translations": 4943,
  "\u2581volunteers": 4944,
  "\u2581wild": 4945,
  "\u2581\u1ecab\u1ee5": 4946,
  "enyemaka": 4947,
  "kpatara": 4948,
  "\u2581Center": 4949,
  "\u2581Error": 4950,
  "\u2581MGBE": 4951,
  "\u2581Shortly": 4952,
  "\u2581Worship": 4953,
  "\u2581begins": 4954,
  "\u2581c": 4955,
  "\u2581egwuri": 4956,
  "\u2581permanent": 4957,
  "\u2581possessions": 4958,
  "\u2581property": 4959,
  "\u2581tend": 4960,
  "gh\u1ecbkwa": 4961,
  "\u2581Early": 4962,
  "\u2581Inc": 4963,
  "\u2581Mmet\u1ee5ta": 4964,
  "\u2581Moab": 4965,
  "\u2581ab\u1ecban\u1ee5": 4966,
  "\u2581anap\u1ee5ta": 4967,
  "\u2581gboo": 4968,
  "\u2581struck": 4969,
  "\u2581warns": 4970,
  "\u2581Gal": 4971,
  "\u2581Lazarus": 4972,
  "\u2581North": 4973,
  "\u2581Oleezi": 4974,
  "\u2581assurance": 4975,
  "\u2581ewuli": 4976,
  "\u2581planet": 4977,
  "\u2581skin": 4978,
  "\u2581street": 4979,
  "\u2581wuo": 4980,
  "\u2581IS": 4981,
  "\u2581Martha": 4982,
  "\u2581abamuru": 4983,
  "\u2581abilities": 4984,
  "\u2581affairs": 4985,
  "\u2581d\u1ecd\u1ecdr\u1ecd": 4986,
  "\u2581exercising": 4987,
  "\u2581ileta": 4988,
  "\u2581k\u1ecd\u1ecd": 4989,
  "\u2581le": 4990,
  "\u2581nyochaa": 4991,
  "\u2581paragraph": 4992,
  "\u2581reliable": 4993,
  "\u2581siga": 4994,
  "\u2581song": 4995,
  "\u2581threat": 4996,
  "\u2581traits": 4997,
  "ogologo": 4998,
  "ton": 4999,
  "\u2581brotherhood": 5000,
  "\u2581b\u1ee5r\u1ee5haala": 5001,
  "\u2581hide": 5002,
  "\u2581hotara": 5003,
  "\u2581literal": 5004,
  "\u2581persecuted": 5005,
  "\u2581tribe": 5006,
  "\u2581\u1ee4L\u1ecc": 5007,
  "\u2581Following": 5008,
  "\u2581NY": 5009,
  "\u2581River": 5010,
  "\u2581dress": 5011,
  "\u2581esite": 5012,
  "\u2581foot": 5013,
  "\u2581pressures": 5014,
  "\u2581pursuing": 5015,
  "\u2581sake": 5016,
  "\u2581scientists": 5017,
  "\u2581%-": 5018,
  "\u2581K\u1ecdmitii": 5019,
  "\u2581NWERE": 5020,
  "\u2581aged": 5021,
  "\u2581akacha": 5022,
  "\u2581at\u1ee5manya": 5023,
  "\u2581enable": 5024,
  "\u2581isoro": 5025,
  "\u2581nnu": 5026,
  "\u2581pioneering": 5027,
  "\u2581project": 5028,
  "\u2581restored": 5029,
  "\u2581rightly": 5030,
  "\u2581visits": 5031,
  "\u2581witnesses": 5032,
  "\u2581\u1eccgbak\u1ecd": 5033,
  "\u2581\u1eccm\u1ee5m\u1ee5": 5034,
  "\u2581\u1ecdl\u1ee5l\u1ee5": 5035,
  "ian": 5036,
  "ies": 5037,
  "im": 5038,
  "wanye": 5039,
  "\u2581607": 5040,
  "\u2581Concern": 5041,
  "\u2581Gaa": 5042,
  "\u2581K\u1ecdwaa": 5043,
  "\u2581anymore": 5044,
  "\u2581covered": 5045,
  "\u2581establish": 5046,
  "\u2581mkpak\u1ecdr\u1ecbta": 5047,
  "\u2581outcome": 5048,
  "\u2581\u1ecdkp\u1ee5r\u1ee5kp\u1ee5": 5049,
  "alaeze": 5050,
  "galaba": 5051,
  "ofufe": 5052,
  "\u2581Kii": 5053,
  "\u2581ak\u00fa": 5054,
  "\u2581arrangements": 5055,
  "\u2581asks": 5056,
  "\u2581begotten": 5057,
  "\u2581dark": 5058,
  "\u2581kp\u1ee5r\u1ee5": 5059,
  "\u2581limitations": 5060,
  "\u2581listeners": 5061,
  "\u2581mmebi": 5062,
  "\u2581nganga": 5063,
  "\u2581sets": 5064,
  "\u2581sold": 5065,
  "ful": 5066,
  "\u2581Gbal\u1ecba": 5067,
  "\u2581brief": 5068,
  "\u2581glorious": 5069,
  "\u2581humbly": 5070,
  "\u2581inclined": 5071,
  "\u2581involving": 5072,
  "\u2581located": 5073,
  "\u2581\u1ecbk\u1ecd": 5074,
  "ozizi": 5075,
  "\u2581Court": 5076,
  "\u2581Deuter\u1ecdn\u1ecdmi": 5077,
  "\u2581Esta": 5078,
  "\u2581Judia": 5079,
  "\u2581Service": 5080,
  "\u2581adult": 5081,
  "\u2581ag\u1ee5si": 5082,
  "\u2581ah\u1ee5gh\u1ecb": 5083,
  "\u2581al\u1ee5begh\u1ecb": 5084,
  "\u2581descendants": 5085,
  "\u2581distance": 5086,
  "\u2581elekwas\u1ecb": 5087,
  "\u2581impact": 5088,
  "\u2581instructed": 5089,
  "\u2581kwagara": 5090,
  "\u2581opinion": 5091,
  "\u2581uchu": 5092,
  "\u2581watching": 5093,
  "\u258151": 5094,
  "\u2581ad\u1ecbgh\u1ecbzi": 5095,
  "\u2581ah\u1ee5r\u1ee5anya": 5096,
  "\u2581awake": 5097,
  "\u2581contain": 5098,
  "\u2581differences": 5099,
  "\u2581gharazie": 5100,
  "\u2581lovingly": 5101,
  "\u2581njide": 5102,
  "\u2581possibly": 5103,
  "\u2581snow": 5104,
  "\u2581sustain": 5105,
  "\u2581temporary": 5106,
  "\u2581x": 5107,
  "\u1ecdch\u1ecbch\u1ecb": 5108,
  "\u258153": 5109,
  "\u2581Ebi": 5110,
  "\u2581generous": 5111,
  "\u2581limit": 5112,
  "\u2581medicine": 5113,
  "\u2581ngh\u1ecdtahie": 5114,
  "\u2581njedebe": 5115,
  "\u2581possess": 5116,
  "\u2581removed": 5117,
  "\u2581sochirin\u1ee5": 5118,
  "\u2581soil": 5119,
  "\u2581trusted": 5120,
  "\u2581\u1ecbp\u1ee5ta": 5121,
  "gide": 5122,
  "our": 5123,
  "\u2581HOW": 5124,
  "\u2581Magazin": 5125,
  "\u2581Says": 5126,
  "\u2581Source": 5127,
  "\u2581agbasa": 5128,
  "\u2581arms": 5129,
  "\u2581broshu\u1ecd": 5130,
  "\u2581cell": 5131,
  "\u2581depends": 5132,
  "\u2581h\u1ee5kwara": 5133,
  "\u2581kp\u1ecdga": 5134,
  "\u2581passing": 5135,
  "\u2581p\u1ecba": 5136,
  "\u2581touch": 5137,
  "\u2581zite": 5138,
  "\u2581\u1ecbgbal\u1ecb": 5139,
  "\u2581\u1ecdh\u1ee5\u1ee5": 5140,
  "ge": 5141,
  "\u2581500": 5142,
  "\u2581Amaged\u1ecdn": 5143,
  "\u2581district": 5144,
  "\u2581doctors": 5145,
  "\u2581finish": 5146,
  "\u2581paying": 5147,
  "\u2581suddenly": 5148,
  "\u2581ziga": 5149,
  "\u2581\u1eccgw\u1ee5": 5150,
  "k\u1ee5k\u1ee5": 5151,
  "\u2581Happy": 5152,
  "\u2581Italy": 5153,
  "\u2581Notice": 5154,
  "\u2581Peace": 5155,
  "\u2581appeal": 5156,
  "\u2581hazie": 5157,
  "\u2581ignored": 5158,
  "\u2581pagan": 5159,
  "\u2581shed": 5160,
  "\u2581strengthening": 5161,
  "\u2581trash": 5162,
  "\u2581wisely": 5163,
  "\u2581zubere": 5164,
  "\u2581\u1ecdd\u1ecbnala": 5165,
  "ministerial": 5166,
  "\u2581bound": 5167,
  "\u2581claimed": 5168,
  "\u2581emefu": 5169,
  "\u2581fleshly": 5170,
  "\u2581foundation": 5171,
  "\u2581ichefu": 5172,
  "\u2581increasing": 5173,
  "\u2581media": 5174,
  "\u2581pleasant": 5175,
  "\u2581rate": 5176,
  "\u2581unknown": 5177,
  "\u2581\u1ecdn\u1ee5ma": 5178,
  "Nna": 5179,
  "ate": 5180,
  "di": 5181,
  "great": 5182,
  "\u1ecbgba": 5183,
  "\u2581Rutherford": 5184,
  "\u2581Web": 5185,
  "\u2581attacks": 5186,
  "\u2581conversations": 5187,
  "\u2581deliverance": 5188,
  "\u2581ekwo": 5189,
  "\u2581ekwup\u1ee5ta": 5190,
  "\u2581games": 5191,
  "\u2581historian": 5192,
  "\u2581mbido": 5193,
  "\u2581opposers": 5194,
  "\u2581president": 5195,
  "\u2581principal": 5196,
  "\u2581raising": 5197,
  "\u258125]": 5198,
  "\u2581Thomas": 5199,
  "\u2581associates": 5200,
  "\u2581ch\u1ecd": 5201,
  "\u2581commands": 5202,
  "\u2581glad": 5203,
  "\u2581kwek\u1ecd\u1ecd": 5204,
  "\u2581lowly": 5205,
  "\u2581okoro": 5206,
  "\u2581painful": 5207,
  "\u2581safety": 5208,
  "ji": 5209,
  "\u258129]": 5210,
  "\u258166": 5211,
  "\u2581Anna": 5212,
  "\u2581Assembly": 5213,
  "\u2581Bel": 5214,
  "\u2581Marriage": 5215,
  "\u2581Ndes\u1ecbta": 5216,
  "\u2581ad\u1ecbla": 5217,
  "\u2581depend": 5218,
  "\u2581imer\u1ee5": 5219,
  "\u2581innocent": 5220,
  "\u2581moves": 5221,
  "\u2581obtained": 5222,
  "\u2581pictures": 5223,
  "\u2581prominent": 5224,
  "\u2581scripture": 5225,
  "\u2581sinners": 5226,
  "\u2581texts": 5227,
  "\u2581\u1eccz\u1ee5z\u1ee5": 5228,
  "\u2581Chinese": 5229,
  "\u2581Welcome": 5230,
  "\u2581X": 5231,
  "\u2581ar\u1ecb": 5232,
  "\u2581benefited": 5233,
  "\u2581chance": 5234,
  "\u2581conviction": 5235,
  "\u2581forgiving": 5236,
  "\u2581parable": 5237,
  "\u2581stories": 5238,
  "\u2581tempted": 5239,
  "\u2581\u1ecck\u1ee5": 5240,
  "\u2581\u1ecdch\u1ee5": 5241,
  "lo": 5242,
  "maara": 5243,
  "\u2581Abel": 5244,
  "\u2581Amer\u1ecbka": 5245,
  "\u2581Enoch": 5246,
  "\u2581Human": 5247,
  "\u2581Malaka\u1ecb": 5248,
  "\u2581Nyere": 5249,
  "\u2581adopt": 5250,
  "\u2581akw\u1ee5wa": 5251,
  "\u2581armies": 5252,
  "\u2581arrested": 5253,
  "\u2581bido": 5254,
  "\u2581debere": 5255,
  "\u2581d\u1ecbruru": 5256,
  "\u2581mebie": 5257,
  "\u2581midst": 5258,
  "\u2581ngwe": 5259,
  "\u2581smoking": 5260,
  "\u2581spirits": 5261,
  "\u2581\u1eccg\u1ee5g\u1ee5": 5262,
  "Ok\u00e9": 5263,
  "any\u1ecb": 5264,
  "\u2581description": 5265,
  "\u2581literally": 5266,
  "\u2581mgbaas\u1ecb": 5267,
  "\u2581royal": 5268,
  "\u2581spending": 5269,
  "\u2581\u1ecbkpachara": 5270,
  "Africa": 5271,
  "me": 5272,
  "with": 5273,
  "\u2581Baal": 5274,
  "\u2581Hezekiah": 5275,
  "\u2581Nnukwu": 5276,
  "\u2581Septuagint": 5277,
  "\u2581gather": 5278,
  "\u2581moon": 5279,
  "\u2581motives": 5280,
  "\u2581prejudice": 5281,
  "\u2581s\u1ecds\u1ecd": 5282,
  "\u2581wipe": 5283,
  "\u2581\u1eccj\u1ecd\u1ecd": 5284,
  "ni": 5285,
  "\u2581Hitler": 5286,
  "\u2581Malachi": 5287,
  "\u2581R\u1ecbba": 5288,
  "\u2581abandon": 5289,
  "\u2581dike": 5290,
  "\u2581drawing": 5291,
  "\u2581ez\u00e9": 5292,
  "\u2581finished": 5293,
  "\u2581fundamental": 5294,
  "\u2581leaves": 5295,
  "\u2581mkpirikpi": 5296,
  "\u2581mkp\u1ecdr\u1ecdgw\u1ee5": 5297,
  "\u2581souls": 5298,
  "\u2581surface": 5299,
  "\u2581victory": 5300,
  "\u2581widely": 5301,
  "\u2581win": 5302,
  "am": 5303,
  "dehie": 5304,
  "ehihie": 5305,
  "\u258121]": 5306,
  "\u2581JEHOVAH": 5307,
  "\u2581Y": 5308,
  "\u2581belongs": 5309,
  "\u2581ekewa": 5310,
  "\u2581grain": 5311,
  "\u2581healing": 5312,
  "\u2581malitekwara": 5313,
  "\u2581northern": 5314,
  "\u2581pleasing": 5315,
  "\u2581repentant": 5316,
  "\u2581stayed": 5317,
  "\u2581\u1ecbk\u1ee5": 5318,
  "ous": 5319,
  "ty": 5320,
  "\u2581Ngosi": 5321,
  "\u2581Passover": 5322,
  "\u2581Prayer": 5323,
  "\u2581context": 5324,
  "\u2581defend": 5325,
  "\u2581exposed": 5326,
  "\u2581restore": 5327,
  "\u2581review": 5328,
  "\u2581satisfied": 5329,
  "\u2581t\u1ee5ghar\u1ecba": 5330,
  "mi": 5331,
  "nlek\u1ecdta": 5332,
  "\u2581Ebel": 5333,
  "\u2581Ekliziastis": 5334,
  "\u2581Ohu": 5335,
  "\u2581Try": 5336,
  "\u2581admits": 5337,
  "\u2581burden": 5338,
  "\u2581choosing": 5339,
  "\u2581discernment": 5340,
  "\u2581d\u1ecbghachi": 5341,
  "\u2581historical": 5342,
  "\u2581intended": 5343,
  "\u2581intense": 5344,
  "\u2581looks": 5345,
  "\u2581mgbede": 5346,
  "\u2581reign": 5347,
  "\u2581sooro": 5348,
  "\u2581uto": 5349,
  "\u2581welfare": 5350,
  "\u2581z\u1ee5litere": 5351,
  "\u2581\u1ecck\u00e0": 5352,
  "bi": 5353,
  "\u2581Amagh\u1ecb": 5354,
  "\u2581BY": 5355,
  "\u2581G\u1ecaN\u1eca": 5356,
  "\u2581contributed": 5357,
  "\u2581female": 5358,
  "\u2581imperfection": 5359,
  "\u2581lovers": 5360,
  "\u2581tests": 5361,
  "Ana": 5362,
  "biga": 5363,
  "\u2581Er\u1ecdn": 5364,
  "\u2581J\u1ee5\u1ecd": 5365,
  "\u2581enabled": 5366,
  "\u2581guided": 5367,
  "\u2581iti": 5368,
  "\u2581merciful": 5369,
  "\u2581miraculous": 5370,
  "\u2581relate": 5371,
  "\u2581tie": 5372,
  "\u2581wear": 5373,
  "\u2581\u1ecbka": 5374,
  "W": 5375,
  "\u1ecbm\u1ee5": 5376,
  "\u2581Ephesus": 5377,
  "\u2581Iden": 5378,
  "\u2581Karen": 5379,
  "\u2581cells": 5380,
  "\u2581eleba": 5381,
  "\u2581feature": 5382,
  "\u2581maintaining": 5383,
  "\u2581meghachi": 5384,
  "\u2581numbers": 5385,
  "\u2581primarily": 5386,
  "\u2581title": 5387,
  "\u2581\u1ecdny\u00e0": 5388,
  "ite": 5389,
  "\u1ecdh\u1ee5\u1ee5": 5390,
  "\u2581De": 5391,
  "\u2581M\u1ee5ta": 5392,
  "\u2581accord": 5393,
  "\u2581akwadogh\u1ecb": 5394,
  "\u2581calamity": 5395,
  "\u2581corrupt": 5396,
  "\u2581dust": 5397,
  "\u2581estimated": 5398,
  "\u2581laid": 5399,
  "\u2581mark": 5400,
  "\u2581owu": 5401,
  "\u2581possession": 5402,
  "\u2581recreation": 5403,
  "\u2581repentance": 5404,
  "\u2581wholesome": 5405,
  "Be": 5406,
  "\u25811970": 5407,
  "\u2581Alexander": 5408,
  "\u2581Death": 5409,
  "\u2581agbakwa": 5410,
  "\u2581enjoying": 5411,
  "\u2581solid": 5412,
  "\u2581weaknesses": 5413,
  "\u2581\u1ecbnara": 5414,
  "\u25811940": 5415,
  "\u2581Amos": 5416,
  "\u2581Get": 5417,
  "\u2581Ngabiga": 5418,
  "\u2581V": 5419,
  "\u2581ah\u1ecdp\u1ee5ta": 5420,
  "\u2581al\u1ecdta": 5421,
  "\u2581approved": 5422,
  "\u2581butere": 5423,
  "\u2581b\u1ecbakwutere": 5424,
  "\u2581debt": 5425,
  "\u2581ekwukar\u1ecb": 5426,
  "\u2581preparing": 5427,
  "\u2581sacrificing": 5428,
  "\u2581teenager": 5429,
  "\u2581\u1ecagba": 5430,
  "akpa": 5431,
  "il": 5432,
  "\u25812015": 5433,
  "\u2581Ad\u1ecb": 5434,
  "\u2581Edo": 5435,
  "\u2581accepting": 5436,
  "\u2581charge": 5437,
  "\u2581complex": 5438,
  "\u2581ekworo": 5439,
  "\u2581elekere": 5440,
  "\u2581gbasaa": 5441,
  "\u2581gh\u1ecdtakwuo": 5442,
  "\u2581guzosie": 5443,
  "\u2581mewo": 5444,
  "\u2581protected": 5445,
  "\u2581ran": 5446,
  "\u2581sorts": 5447,
  "\u2581\u1ecc\u1e45\u1ee5": 5448,
  "\u2581300": 5449,
  "\u2581Pa\u1ecblet": 5450,
  "\u2581Usoro": 5451,
  "\u2581akw\u1ee5na": 5452,
  "\u2581alert": 5453,
  "\u2581birds": 5454,
  "\u2581ears": 5455,
  "\u2581ebumnobi": 5456,
  "\u2581fig": 5457,
  "\u2581g": 5458,
  "\u2581gathering": 5459,
  "\u2581rock": 5460,
  "\u2581unless": 5461,
  "\u2581y": 5462,
  "\u2581Dictionary": 5463,
  "\u2581Old": 5464,
  "\u2581Rev": 5465,
  "\u2581Russian": 5466,
  "\u2581b\u1ee5gh\u1ecbkwa": 5467,
  "\u2581check": 5468,
  "\u2581civil": 5469,
  "\u2581detara": 5470,
  "\u2581endured": 5471,
  "\u2581famous": 5472,
  "\u2581gagh\u1ecbkwa": 5473,
  "\u2581illustrations": 5474,
  "\u2581partner": 5475,
  "\u2581prisoners": 5476,
  "\u2581uhie": 5477,
  "9": 5478,
  "\u258142.": 5479,
  "\u2581Philip": 5480,
  "\u2581acquire": 5481,
  "\u2581cared": 5482,
  "\u2581depressed": 5483,
  "\u2581eliminate": 5484,
  "\u2581leader": 5485,
  "\u2581mpi": 5486,
  "\u2581owuwe": 5487,
  "\u2581quiet": 5488,
  "\u2581unclean": 5489,
  "\u2581video": 5490,
  "201": 5491,
  "ING": 5492,
  "ah": 5493,
  "ikike": 5494,
  "\u1eccr\u1ee5": 5495,
  "\u258149": 5496,
  "\u25818;": 5497,
  "\u2581Ama": 5498,
  "\u2581Besides": 5499,
  "\u2581Galili": 5500,
  "\u2581Greece": 5501,
  "\u2581Heights": 5502,
  "\u2581acknowledged": 5503,
  "\u2581ad\u1ee5": 5504,
  "\u2581akw\u1ee5ghachi": 5505,
  "\u2581childhood": 5506,
  "\u2581destination": 5507,
  "\u2581d\u1ecd": 5508,
  "\u2581emehie": 5509,
  "\u2581features": 5510,
  "\u2581kpataara": 5511,
  "\u2581kpebisie": 5512,
  "\u2581n\u1ecdworo": 5513,
  "\u2581rewarding": 5514,
  "\u2581survey": 5515,
  "\u2581throw": 5516,
  "chiri": 5517,
  "tic": 5518,
  "\u2581AND": 5519,
  "\u2581Mgbanwe": 5520,
  "\u2581akat\u1ecd": 5521,
  "\u2581as\u1ee5ghar\u1ecb": 5522,
  "\u2581emotionally": 5523,
  "\u2581gained": 5524,
  "\u2581nwegh\u1ecbkwa": 5525,
  "\u2581puts": 5526,
  "\u2581residents": 5527,
  "\u2581tribes": 5528,
  "at\u1ee5r\u1ee5": 5529,
  "nwugh\u1ecb": 5530,
  "obere": 5531,
  "\u2581agh\u1ecdtagh\u1ecb": 5532,
  "\u2581clergy": 5533,
  "\u2581extended": 5534,
  "\u2581irube": 5535,
  "\u2581kpaa": 5536,
  "\u2581nsure": 5537,
  "\u2581patiently": 5538,
  "\u2581reminders": 5539,
  "\u2581suggests": 5540,
  "\u2581symbolic": 5541,
  "\u2581talks": 5542,
  "\u2581\u1ecbkpali": 5543,
  "\u2581\u1ecdd\u1ee5m": 5544,
  "Jiz\u1ecds": 5545,
  "drew": 5546,
  "\u25811914.": 5547,
  "\u25812,000": 5548,
  "\u2581Eji": 5549,
  "\u2581Gilied": 5550,
  "\u2581Korea": 5551,
  "\u2581ad\u1ecbkwu": 5552,
  "\u2581afterward": 5553,
  "\u2581cross": 5554,
  "\u2581defined": 5555,
  "\u2581f": 5556,
  "\u2581frequently": 5557,
  "\u2581iron": 5558,
  "\u2581mep\u1ee5tara": 5559,
  "\u2581patients": 5560,
  "\u2581\u1ee5l\u1ecdikpe": 5561,
  "bigh\u1ecb": 5562,
  "w": 5563,
  "\u00cc": 5564,
  "\u258117;": 5565,
  "\u2581Unlike": 5566,
  "\u2581applies": 5567,
  "\u2581divided": 5568,
  "\u2581gw\u1ee5": 5569,
  "\u2581imet\u1ee5ta": 5570,
  "\u2581ketara": 5571,
  "\u2581olive": 5572,
  "\u2581rubere": 5573,
  "\u2581ungodly": 5574,
  "\u2581usuu": 5575,
  "\u2581visitors": 5576,
  "\u2581worker": 5577,
  "age": 5578,
  "ter": 5579,
  "\u2581Corinth": 5580,
  "\u2581Spiritual": 5581,
  "\u2581Things": 5582,
  "\u2581campaign": 5583,
  "\u2581cruel": 5584,
  "\u2581distant": 5585,
  "\u2581distrikti": 5586,
  "\u2581enwekwu": 5587,
  "\u2581inherited": 5588,
  "\u2581kw\u1ee5r\u1ee5": 5589,
  "\u2581reduce": 5590,
  "To": 5591,
  "\u25816]": 5592,
  "\u2581Habakkuk": 5593,
  "\u2581MMAD\u1ee4": 5594,
  "\u2581Mkpu": 5595,
  "\u2581Nt\u1ecb": 5596,
  "\u2581Ofufe": 5597,
  "\u2581Richard": 5598,
  "\u2581Saturday": 5599,
  "\u2581Select": 5600,
  "\u2581batara": 5601,
  "\u2581ebuli": 5602,
  "\u2581h\u1ecdp\u1ee5ta": 5603,
  "\u2581kaad\u1ecb": 5604,
  "\u2581meditation": 5605,
  "\u2581nn\u1ecdchianya": 5606,
  "\u2581upbuilding": 5607,
  "ile": 5608,
  "\u1ecdgb\u1ecd": 5609,
  "\u25811945": 5610,
  "\u258140.": 5611,
  "\u2581Asiria": 5612,
  "\u2581Netherlands": 5613,
  "\u2581agaa": 5614,
  "\u2581anagh\u1ecbzi": 5615,
  "\u2581buo": 5616,
  "\u2581extend": 5617,
  "\u2581irite": 5618,
  "\u2581isolated": 5619,
  "\u2581mkpar\u1ecb": 5620,
  "\u2581nkata": 5621,
  "\u2581price": 5622,
  "\u2581programs": 5623,
  "\u2581threatened": 5624,
  "\u2581\u1ee5r\u1ecd": 5625,
  "id": 5626,
  "ie": 5627,
  "\u25812006": 5628,
  "\u2581Gwa": 5629,
  "\u2581HAVE": 5630,
  "\u2581Up": 5631,
  "\u2581Within": 5632,
  "\u2581Year": 5633,
  "\u2581dating": 5634,
  "\u2581esikwa": 5635,
  "\u2581fields": 5636,
  "\u2581letara": 5637,
  "\u2581perfection": 5638,
  "\u2581theocratic": 5639,
  "vi": 5640,
  "\u25811960": 5641,
  "\u2581Fear": 5642,
  "\u2581Heart": 5643,
  "\u2581KWURU": 5644,
  "\u2581N\u1ecdgide": 5645,
  "\u2581Right": 5646,
  "\u2581Viewpoint": 5647,
  "\u2581Way": 5648,
  "\u2581aw\u1ee5": 5649,
  "\u2581experts": 5650,
  "\u2581foolish": 5651,
  "\u2581gets": 5652,
  "\u2581obligation": 5653,
  "\u2581peer": 5654,
  "\u2581repeated": 5655,
  "\u2581ship": 5656,
  "\u2581worry": 5657,
  "\u2581\u1ecah\u1ee5": 5658,
  "\u1ecds\u1ecd": 5659,
  "\u258145.": 5660,
  "\u2581Egyptian": 5661,
  "\u2581Eklisiastis": 5662,
  "\u2581Em\u1ecds": 5663,
  "\u2581GNOME": 5664,
  "\u2581button": 5665,
  "\u2581dabere": 5666,
  "\u2581gbap\u1ee5": 5667,
  "\u2581glorify": 5668,
  "\u2581grave": 5669,
  "\u2581meek": 5670,
  "\u2581middle": 5671,
  "\u2581river": 5672,
  "\u2581scale": 5673,
  "\u2581suggested": 5674,
  "\u2581tear": 5675,
  "\u2581\u1ecbgw\u1ecd": 5676,
  "J": 5677,
  "onyinye": 5678,
  "\u2581Ireland": 5679,
  "\u2581Pilate": 5680,
  "\u2581agh\u1ecd\u1ecd": 5681,
  "\u2581capable": 5682,
  "\u2581comment": 5683,
  "\u2581mine": 5684,
  "\u2581nakweere": 5685,
  "\u2581nyefere": 5686,
  "\u2581previously": 5687,
  "\u2581relevant": 5688,
  "\u2581r\u1ee5p\u1ee5tara": 5689,
  "\u2581songs": 5690,
  "Ot\u00fa": 5691,
  "\u2581Agba": 5692,
  "\u2581Buru": 5693,
  "\u2581Coordinate": 5694,
  "\u2581ID": 5695,
  "\u2581Le": 5696,
  "\u2581Nw\u1ee5r\u1ee5": 5697,
  "\u2581Nzube": 5698,
  "\u2581San": 5699,
  "\u2581elements": 5700,
  "\u2581enwewo": 5701,
  "\u2581income": 5702,
  "\u2581mana": 5703,
  ".[1]": 5704,
  "k\u00fa": 5705,
  "n\u1ecdgidesi": 5706,
  "\u00d2": 5707,
  "\u2581Hope": 5708,
  "\u2581akp\u1ecdkwa": 5709,
  "\u2581anagh\u1ecbkwa": 5710,
  "\u2581anya\u1ee5f\u1ee5": 5711,
  "\u2581ewee": 5712,
  "\u2581existed": 5713,
  "\u2581friendships": 5714,
  "\u2581initiative": 5715,
  "\u2581mgba\u00e0m\u00e0": 5716,
  "\u2581n\u1ecd\u1ecds\u1ee5": 5717,
  "\u2581ordered": 5718,
  "\u2581set\u1ecbp\u1ee5": 5719,
  "\u2581sokwa": 5720,
  "\u2581table": 5721,
  "\u2581thanks": 5722,
  "\u2581traditional": 5723,
  "\u2581\u1ecbtachi": 5724,
  "egbugh\u1ecb": 5725,
  "keep": 5726,
  "\u258131]": 5727,
  "\u2581Amamihe": 5728,
  "\u2581Babylonian": 5729,
  "\u2581Enwe": 5730,
  "\u2581Enyemaka": 5731,
  "\u2581Switzerland": 5732,
  "\u2581extra": 5733,
  "\u2581fathers": 5734,
  "\u2581finds": 5735,
  "\u2581fun": 5736,
  "\u2581inwere": 5737,
  "\u2581inyocha": 5738,
  "\u2581meghar\u1ecba": 5739,
  "\u2581mood": 5740,
  "\u2581nkwek\u1ecdr\u1ecbta": 5741,
  "\u2581officer": 5742,
  "\u2581refreshing": 5743,
  "\u2581remote": 5744,
  "\u2581thankful": 5745,
  "\u2581\u1ee4j\u1ecd": 5746,
  "k\u1ecdta": 5747,
  "zu": 5748,
  "\u2581Jenta\u1ecbl": 5749,
  "\u2581Jordan": 5750,
  "\u2581Living": 5751,
  "\u2581Ng\u1ecdzi": 5752,
  "\u2581Trinity": 5753,
  "\u2581anata": 5754,
  "\u2581at\u1ecdgbu": 5755,
  "\u2581cheghar\u1ecba": 5756,
  "\u2581gakwuru": 5757,
  "\u2581g\u1ee5s\u1ecbr\u1ecb": 5758,
  "\u2581headquarters": 5759,
  "\u2581kwusara": 5760,
  "\u2581megh\u1ecb": 5761,
  "\u2581mourning": 5762,
  "\u2581okooko": 5763,
  "\u2581post": 5764,
  "\u2581profound": 5765,
  "\u2581torture": 5766,
  "483,": 5767,
  "\u2581145": 5768,
  "\u25811943": 5769,
  "\u2581El": 5770,
  "\u2581Titus": 5771,
  "\u2581b\u1ecdmb\u1ee5": 5772,
  "\u2581harsh": 5773,
  "\u2581ifo": 5774,
  "\u2581lips": 5775,
  "\u2581marked": 5776,
  "\u2581market": 5777,
  "\u2581origin": 5778,
  "\u2581reads": 5779,
  "\u2581storm": 5780,
  "\u2581\u1ecbkw\u1ee5": 5781,
  "gbara": 5782,
  "\u1ee5l\u1ecdikpe": 5783,
  "\u2581Avoid": 5784,
  "\u2581A\u1e45aa": 5785,
  "\u2581Dad": 5786,
  "\u2581JEHOVA": 5787,
  "\u2581Levitik\u1ecds": 5788,
  "\u2581Making": 5789,
  "\u2581Nehema\u1ecba": 5790,
  "\u2581adjust": 5791,
  "\u2581ag\u1ee5makw\u1ee5kw\u1ecd": 5792,
  "\u2581fighting": 5793,
  "\u2581hot": 5794,
  "\u2581losing": 5795,
  "\u2581lower": 5796,
  "\u2581mechie": 5797,
  "\u2581mistake": 5798,
  "\u2581mkpali": 5799,
  "\u2581nkwar\u1ee5": 5800,
  "\u2581peers": 5801,
  "\u2581replaced": 5802,
  "\u2581tendency": 5803,
  "\u2581unrighteous": 5804,
  "pp": 5805,
  "rs": 5806,
  "\u2581150": 5807,
  "\u2581Cheed\u1ecb": 5808,
  "\u2581Congregation": 5809,
  "\u2581Create": 5810,
  "\u2581Master": 5811,
  "\u2581attain": 5812,
  "\u2581blame": 5813,
  "\u2581che": 5814,
  "\u2581devoted": 5815,
  "\u2581disasters": 5816,
  "\u2581fears": 5817,
  "\u2581frame": 5818,
  "\u2581holds": 5819,
  "\u2581iberibe": 5820,
  "\u2581imegide": 5821,
  "\u2581mgbawa": 5822,
  "\u2581north": 5823,
  "\u2581ntabi": 5824,
  "\u2581paper": 5825,
  "\u2581safeguard": 5826,
  "\u2581significance": 5827,
  "\u2581walls": 5828,
  "\u2581wrath": 5829,
  "\u2581yanwa": 5830,
  "K": 5831,
  "kw\u1ecd": 5832,
  "mo": 5833,
  "\u2581Default": 5834,
  "\u2581Henry": 5835,
  "\u2581Josiah": 5836,
  "\u2581Museum": 5837,
  "\u2581Which": 5838,
  "\u2581ad\u1ecbp\u1ee5": 5839,
  "\u2581compassionate": 5840,
  "\u2581ethnic": 5841,
  "\u2581feed": 5842,
  "\u2581guilt": 5843,
  "\u2581ig": 5844,
  "\u2581ilekwas\u1ecb": 5845,
  "\u2581minit": 5846,
  "\u2581preserve": 5847,
  "\u2581reap": 5848,
  "\u2581resolved": 5849,
  "\u2581smoke": 5850,
  "8": 5851,
  "iso": 5852,
  "son": 5853,
  "\u2581Filistia": 5854,
  "\u2581adopted": 5855,
  "\u2581emesap\u1ee5": 5856,
  "\u2581everywhere": 5857,
  "\u2581execution": 5858,
  "\u2581morally": 5859,
  "\u2581nw\u1ee5nah\u1ee5r\u1ee5": 5860,
  "\u2581shortly": 5861,
  "\u2581tired": 5862,
  "No": 5863,
  "t\u1ee5la": 5864,
  "\u25811996": 5865,
  "\u2581Bi": 5866,
  "\u2581Galilee": 5867,
  "\u2581Leviticus": 5868,
  "\u2581Next": 5869,
  "\u2581Three": 5870,
  "\u2581ad\u1ecbkar\u1ecb": 5871,
  "\u2581burning": 5872,
  "\u2581condemned": 5873,
  "\u2581edi": 5874,
  "\u2581emes\u1ecb": 5875,
  "\u2581etiti": 5876,
  "\u2581guilty": 5877,
  "\u2581gw\u1ee5la": 5878,
  "\u2581inyeaka": 5879,
  "\u2581kasie": 5880,
  "\u2581mpaghara": 5881,
  "\u2581proceeded": 5882,
  "\u2581tradition": 5883,
  "\u2581trusting": 5884,
  "\u2581twice": 5885,
  "\u2581\u00fagw\u00f9": 5886,
  "eji": 5887,
  "\u2581H\u1ee5r\u1ee5": 5888,
  "\u2581Institute": 5889,
  "\u2581Zaa": 5890,
  "\u2581citizens": 5891,
  "\u2581gbawara": 5892,
  "\u2581ido": 5893,
  "\u2581miracle": 5894,
  "\u2581omimi": 5895,
  "\u2581researchers": 5896,
  "\u2581returning": 5897,
  "\u2581serpent": 5898,
  "\u2581sitting": 5899,
  "\u2581surrounded": 5900,
  "Mmad\u1ee5": 5901,
  "ca": 5902,
  "\u258154": 5903,
  "\u2581Caesar": 5904,
  "\u2581Change": 5905,
  "\u2581Ekwela": 5906,
  "\u2581Lagos": 5907,
  "\u2581Mara": 5908,
  "\u2581Nnyocha": 5909,
  "\u2581Red": 5910,
  "\u2581accident": 5911,
  "\u2581hospitality": 5912,
  "\u2581initial": 5913,
  "\u2581jik\u1ecdtara": 5914,
  "\u2581ngosip\u1ee5ta": 5915,
  "\u2581obeying": 5916,
  "\u2581regardless": 5917,
  "\u2581regret": 5918,
  "\u2581urges": 5919,
  "\u2581\u1eccMA": 5920,
  "ch\u1ecdp\u1ee5tara": 5921,
  "\u258124]": 5922,
  "\u2581Alaka": 5923,
  "\u2581Isa": 5924,
  "\u2581OLEE": 5925,
  "\u2581Paneel\u1ee5": 5926,
  "\u2581Photo": 5927,
  "\u2581Ukwuu": 5928,
  "\u2581bip\u1ee5ta": 5929,
  "\u2581dry": 5930,
  "\u2581ejup\u1ee5ta": 5931,
  "\u2581encounter": 5932,
  "\u2581except": 5933,
  "\u2581marital": 5934,
  "\u2581opposed": 5935,
  "\u2581owner": 5936,
  "\u2581printing": 5937,
  "\u2581schools": 5938,
  "\u2581temper": 5939,
  "\u2581terrible": 5940,
  "\u2581yikar\u1ecb": 5941,
  "\u2581\u1eccZ\u1ecc": 5942,
  "V": 5943,
  "by": 5944,
  "ide": 5945,
  "sh": 5946,
  "s\u1ecdr\u1ecd": 5947,
  "\u25811090,": 5948,
  "\u2581Ben": 5949,
  "\u2581Ehab": 5950,
  "\u2581Organization": 5951,
  "\u2581alaghachi": 5952,
  "\u2581art": 5953,
  "\u2581atmosphere": 5954,
  "\u2581author": 5955,
  "\u2581bitter": 5956,
  "\u2581changing": 5957,
  "\u2581character": 5958,
  "\u2581fresh": 5959,
  "\u2581idolatry": 5960,
  "\u2581ngaghar\u1ecb": 5961,
  "\u2581seventh": 5962,
  "gidere": 5963,
  "\u2581Child": 5964,
  "\u2581Gideon": 5965,
  "\u2581Yurop": 5966,
  "\u2581af\u1ee5": 5967,
  "\u2581interesting": 5968,
  "\u2581poured": 5969,
  "\u2581searching": 5970,
  "\u2581space": 5971,
  "\u2581stronger": 5972,
  "D\u1ecb": 5973,
  "at\u1ee5gh\u1ecb": 5974,
  "ist": 5975,
  "v": 5976,
  "\u2581Her\u1ecdd": 5977,
  "\u2581Sermon": 5978,
  "\u2581USED": 5979,
  "\u2581covering": 5980,
  "\u2581entrusted": 5981,
  "\u2581enwegh\u1ecbzi": 5982,
  "\u2581lara": 5983,
  "\u2581length": 5984,
  "\u2581likened": 5985,
  "\u2581mates": 5986,
  "\u2581mehiere": 5987,
  "\u2581mid": 5988,
  "\u2581necessarily": 5989,
  "\u2581otiti": 5990,
  "\u2581red": 5991,
  "\u2581wheat": 5992,
  "0": 5993,
  "\u2581EME": 5994,
  "\u2581H\u1ee5": 5995,
  "\u2581Pacific": 5996,
  "\u2581black": 5997,
  "\u2581burned": 5998,
  "\u2581diet": 5999,
  "\u2581ekpegara": 6000,
  "\u2581hell": 6001,
  "\u2581inherit": 6002,
  "\u2581pregnant": 6003,
  "\u2581silent": 6004,
  "\u2581spite": 6005,
  "\u2581tabernacle": 6006,
  "\u2581unusual": 6007,
  "\u2581ure": 6008,
  "\u2581warfare": 6009,
  "By": 6010,
  "chitere": 6011,
  "gwara": 6012,
  "\u00e0gw\u00e0etiti": 6013,
  "\u2581Come": 6014,
  "\u2581Empire": 6015,
  "\u2581OT\u00da": 6016,
  "\u2581Windo": 6017,
  "\u2581az\u1ee5lite": 6018,
  "\u2581chebere": 6019,
  "\u2581edina": 6020,
  "\u2581eletrik": 6021,
  "\u2581engaging": 6022,
  "\u2581flee": 6023,
  "\u2581h\u1ee5kwa": 6024,
  "\u2581mail": 6025,
  "\u2581mass": 6026,
  "\u2581messages": 6027,
  "\u2581nyekwa": 6028,
  "\u2581n\u1ecdmba": 6029,
  "\u2581observing": 6030,
  "\u2581outlook": 6031,
  "\u2581playing": 6032,
  "\u2581reply": 6033,
  "\u2581schedule": 6034,
  "ant": 6035,
  "\u1ee5l\u1ecdikwuu": 6036,
  "\u2581Abigail": 6037,
  "\u2581Eastern": 6038,
  "\u2581Judea": 6039,
  "\u2581Ukraine": 6040,
  "\u2581Workspace": 6041,
  "\u2581achieve": 6042,
  "\u2581an\u1ecdchite": 6043,
  "\u2581comfortable": 6044,
  "\u2581educational": 6045,
  "\u2581fitting": 6046,
  "\u2581igbo": 6047,
  "\u2581mkp\u1ecb": 6048,
  "\u2581mmer\u1ee5": 6049,
  "\u2581mwakpo": 6050,
  "\u2581nchekas\u1ecb": 6051,
  "\u2581readers": 6052,
  "\u2581status": 6053,
  "\u2581types": 6054,
  "\u2581t\u1ecd\u1ecd": 6055,
  "\u2581\u1ecdg\u1ecd": 6056,
  "ja": 6057,
  "\u1ee5kw\u1ee5": 6058,
  "\u25810": 6059,
  "\u2581California": 6060,
  "\u2581Martin": 6061,
  "\u2581Set": 6062,
  "\u2581ach\u1ecdp\u1ee5tala": 6063,
  "\u2581addressed": 6064,
  "\u2581annual": 6065,
  "\u2581co": 6066,
  "\u2581doctrine": 6067,
  "\u2581d\u1ecbgod\u1ecb": 6068,
  "\u2581gw\u1ecdr\u1ecd": 6069,
  "\u2581kat\u1ecdr\u1ecd": 6070,
  "\u2581method": 6071,
  "\u2581proverb": 6072,
  "\u2581whereas": 6073,
  "\u2581\u1ecdn\u1ee5\u1ecdg\u1ee5g\u1ee5": 6074,
  "of": 6075,
  "\u2581B\u1ecbaruo": 6076,
  "\u2581Jaman\u1ecb": 6077,
  "\u2581b\u1ee5d\u1ecb": 6078,
  "\u2581capacity": 6079,
  "\u2581chep\u1ee5tara": 6080,
  "\u2581equal": 6081,
  "\u2581meditating": 6082,
  "\u2581ndagwurugwu": 6083,
  "\u2581nrubeisi": 6084,
  "\u2581scientific": 6085,
  "\u2581sell": 6086,
  "\u2581teb\u1ee5l": 6087,
  "\u2581urge": 6088,
  "\u2581vow": 6089,
  "\u25812014": 6090,
  "\u2581Anw\u1ee5": 6091,
  "\u2581Diuter\u1ecdn\u1ecdmi": 6092,
  "\u2581Ememme": 6093,
  "\u2581Herod": 6094,
  "\u2581Ihu": 6095,
  "\u2581Need": 6096,
  "\u2581Western": 6097,
  "\u2581conflicts": 6098,
  "\u2581executed": 6099,
  "\u2581firstborn": 6100,
  "\u2581gbap\u1ee5ta": 6101,
  "\u2581gharakwa": 6102,
  "\u2581introduced": 6103,
  "\u2581lekwas\u1ecbr\u1ecb": 6104,
  "\u2581mep\u1ee5ta": 6105,
  "\u2581minded": 6106,
  "\u2581rewarded": 6107,
  "\u2581sayings": 6108,
  "\u2581target": 6109,
  "\u2581turns": 6110,
  "\u2581weather": 6111,
  "\u258156": 6112,
  "\u2581Back": 6113,
  "\u2581Baptizim": 6114,
  "\u2581Efe": 6115,
  "\u2581Men": 6116,
  "\u2581Siria": 6117,
  "\u2581beast": 6118,
  "\u2581believing": 6119,
  "\u2581explanation": 6120,
  "\u2581k\u1ee5\u1ecd": 6121,
  "\u2581njehie": 6122,
  "\u2581nwaa": 6123,
  "\u2581objects": 6124,
  "\u2581range": 6125,
  "\u2581rescue": 6126,
  "\u2581tent": 6127,
  "\u2581weakness": 6128,
  "\u2581\u1ecbja": 6129,
  "\u2581\u1ecbs\u1ee5ghar\u1ecb": 6130,
  "\u2581\u1eccm\u1ee5ma": 6131,
  "LA": 6132,
  "Ugwu": 6133,
  "ko": 6134,
  "\u1ecdnw\u1ee5nwa": 6135,
  "\u2581Ahab": 6136,
  "\u2581Drama": 6137,
  "\u2581ad\u1ecbte": 6138,
  "\u2581director": 6139,
  "\u2581eagerly": 6140,
  "\u2581enables": 6141,
  "\u2581happening": 6142,
  "\u2581host": 6143,
  "\u2581iguzogide": 6144,
  "\u2581injury": 6145,
  "\u2581mer\u1ee5r\u1ee5": 6146,
  "\u2581ntutu": 6147,
  "\u2581patriarch": 6148,
  "\u2581treasures": 6149,
  "\u2581universal": 6150,
  "ch\u1ecdr\u1ecd": 6151,
  "eme": 6152,
  "men": 6153,
  "pa": 6154,
  "\u1ecbg\u1ee5": 6155,
  "\u2581Dan": 6156,
  "\u2581IT": 6157,
  "\u2581Professor": 6158,
  "\u2581STUDY": 6159,
  "\u2581arrival": 6160,
  "\u2581camps": 6161,
  "\u2581creature": 6162,
  "\u2581delighted": 6163,
  "\u2581depth": 6164,
  "\u2581desirable": 6165,
  "\u2581dying": 6166,
  "\u2581fourth": 6167,
  "\u2581gbasa": 6168,
  "\u2581grand": 6169,
  "\u2581g\u1ee5": 6170,
  "\u2581marakwa": 6171,
  "\u2581ngalaba": 6172,
  "\u2581promotes": 6173,
  "\u2581\u1eccch\u1ecbch\u1ecd": 6174,
  "his": 6175,
  "tu": 6176,
  "\u1ecdb\u1ecbb\u1ecba": 6177,
  "\u2581(4)": 6178,
  "\u258100": 6179,
  "\u258133,": 6180,
  "\u2581Hezekaya": 6181,
  "\u2581References": 6182,
  "\u2581appealing": 6183,
  "\u2581expectations": 6184,
  "\u2581faces": 6185,
  "\u2581figure": 6186,
  "\u2581heat": 6187,
  "\u2581judges": 6188,
  "\u2581legha": 6189,
  "\u2581preserved": 6190,
  "\u2581remembered": 6191,
  "\u2581singing": 6192,
  "\u2581strangers": 6193,
  "\u2581sufficient": 6194,
  "\u2581systems": 6195,
  "\u2581wealthy": 6196,
  "\u2581\u1ecbl\u1ee5so": 6197,
  "bo": 6198,
  "ule": 6199,
  "\u1ee5gb\u1ecdala": 6200,
  "\u25811994": 6201,
  "\u2581A\u1ecbza\u1ecba": 6202,
  "\u2581IKE": 6203,
  "\u2581Jefta": 6204,
  "\u2581J\u1ecddan": 6205,
  "\u2581Little": 6206,
  "\u2581Rachel": 6207,
  "\u2581accompanie": 6208,
  "\u2581cast": 6209,
  "\u2581claims": 6210,
  "\u2581commandment": 6211,
  "\u2581convey": 6212,
  "\u2581creating": 6213,
  "\u2581dies": 6214,
  "\u2581du": 6215,
  "\u2581ekesa": 6216,
  "\u2581exchange": 6217,
  "\u2581exciting": 6218,
  "\u2581farm": 6219,
  "\u2581ndina": 6220,
  "\u2581peaceable": 6221,
  "\u2581professor": 6222,
  "\u2581sincerely": 6223,
  "\u2581survived": 6224,
  "\u2581s\u1ee5\u1ecd": 6225,
  "\u2581telephone": 6226,
  "\u2581typical": 6227,
  "\u2581\u1ecbs\u1ecdp\u1ee5r\u1ee5": 6228,
  "echi": 6229,
  "ke": 6230,
  "\u00ecf": 6231,
  "\u258118;": 6232,
  "\u2581Al": 6233,
  "\u2581Benjamin": 6234,
  "\u2581Happiness": 6235,
  "\u2581Kwuru": 6236,
  "\u2581Published": 6237,
  "\u2581adjustments": 6238,
  "\u2581agreement": 6239,
  "\u2581ends": 6240,
  "\u2581engaged": 6241,
  "\u2581ewusi": 6242,
  "\u2581examination": 6243,
  "\u2581film": 6244,
  "\u2581limits": 6245,
  "\u2581maturity": 6246,
  "\u2581murder": 6247,
  "\u2581priority": 6248,
  "\u2581smile": 6249,
  "\u2581symptoms": 6250,
  "\u2581telivish\u1ecdn": 6251,
  "ER": 6252,
  "Your": 6253,
  "ized": 6254,
  "\u2581An\u1ecd": 6255,
  "\u2581Britannica": 6256,
  "\u2581accused": 6257,
  "\u2581advancement": 6258,
  "\u2581anxieties": 6259,
  "\u2581dimkpa": 6260,
  "\u2581earnestly": 6261,
  "\u2581egboro": 6262,
  "\u2581modesty": 6263,
  "\u2581motive": 6264,
  "\u2581okike": 6265,
  "\u2581participate": 6266,
  "\u2581plants": 6267,
  "\u2581subjection": 6268,
  "\u2581supplies": 6269,
  "\u2581totally": 6270,
  "\u2581trakt\u1ecb": 6271,
  "\u2581wit": 6272,
  "b\u1ee5": 6273,
  "ious": 6274,
  "lu": 6275,
  "\u25811918": 6276,
  "\u25811980": 6277,
  "\u2581400": 6278,
  "\u258175": 6279,
  "\u2581A\u1ecbza": 6280,
  "\u2581ETO": 6281,
  "\u2581Siza": 6282,
  "\u2581admit": 6283,
  "\u2581akpasu": 6284,
  "\u2581amazing": 6285,
  "\u2581ase": 6286,
  "\u2581begun": 6287,
  "\u2581ekwuo": 6288,
  "\u2581fallen": 6289,
  "\u2581gabigara": 6290,
  "\u2581kpuchie": 6291,
  "\u2581nkewa": 6292,
  "\u2581rere": 6293,
  "\u2581starting": 6294,
  "\u2581summer": 6295,
  "\u2581thrown": 6296,
  ".[2]": 6297,
  "Why": 6298,
  "ir": 6299,
  "\u25812005": 6300,
  "\u25812007": 6301,
  "\u2581AKA": 6302,
  "\u2581AS": 6303,
  "\u2581Andrew": 6304,
  "\u2581Banye": 6305,
  "\u2581Much": 6306,
  "\u2581contents": 6307,
  "\u2581d\u1ecbgide": 6308,
  "\u2581eduba": 6309,
  "\u2581immediate": 6310,
  "\u2581mmem": 6311,
  "\u2581ngw\u1ee5cha": 6312,
  "\u2581outset": 6313,
  "\u2581pr\u1ecdfes\u1ecd": 6314,
  "\u2581satisfy": 6315,
  "\u2581\u1ecatali": 6316,
  "\u2581\u1ecdk\u00e0ikpe": 6317,
  "\u2581\u1ecdk\u1ee5k\u1ee5": 6318,
  "ti": 6319,
  "\u258147": 6320,
  "\u2581Ibe": 6321,
  "\u2581aja": 6322,
  "\u2581discussions": 6323,
  "\u2581egbuke": 6324,
  "\u2581greed": 6325,
  "\u2581impression": 6326,
  "\u2581imprisoned": 6327,
  "\u2581practiced": 6328,
  "\u2581products": 6329,
  "\u2581prosperity": 6330,
  "\u2581represents": 6331,
  "\u2581respected": 6332,
  "\u2581statements": 6333,
  "\u2581station": 6334,
  "\u2581tested": 6335,
  "\u2581widespread": 6336,
  "\u2581yoke": 6337,
  "\u2581\u00e1": 6338,
  "$": 6339,
  "lebara": 6340,
  "\u25811930": 6341,
  "\u2581Albert": 6342,
  "\u2581Nisan": 6343,
  "\u2581Religion": 6344,
  "\u2581az\u1ecdr\u1ecd": 6345,
  "\u2581az\u1ee5mah\u1ecba": 6346,
  "\u2581bank": 6347,
  "\u2581calendar": 6348,
  "\u2581elsewhere": 6349,
  "\u2581irighiri": 6350,
  "\u2581iweta": 6351,
  "\u2581kp\u1ee5\u1ecd": 6352,
  "\u2581nk\u1ecbta": 6353,
  "\u2581\u1ecama": 6354,
  "\u2581\u1ecdb\u1ee5b\u1ee5eze": 6355,
  "ncient": 6356,
  "\u25811946": 6357,
  "\u258183": 6358,
  "\u2581Answered": 6359,
  "\u2581Car": 6360,
  "\u2581Fa\u1ecbl\u1ee5": 6361,
  "\u2581Files": 6362,
  "\u2581Ibu": 6363,
  "\u2581Library": 6364,
  "\u2581Millions": 6365,
  "\u2581Sitere": 6366,
  "\u2581cup": 6367,
  "\u2581gambling": 6368,
  "\u2581lekwas\u1ecb": 6369,
  "\u2581objective": 6370,
  "\u2581planning": 6371,
  "\u2581politics": 6372,
  "\u2581reside": 6373,
  "\u2581ruled": 6374,
  "\u2581similarly": 6375,
  "\u2581southern": 6376,
  "\u2581sports": 6377,
  "ku": 6378,
  "ruo": 6379,
  "that": 6380,
  "\u1e45\u1ee5biga": 6381,
  "\u25811950": 6382,
  "\u258132]": 6383,
  "\u2581Any": 6384,
  "\u2581Education": 6385,
  "\u2581Ex": 6386,
  "\u2581Gen": 6387,
  "\u2581Judges": 6388,
  "\u2581Polish": 6389,
  "\u2581ach\u1ecdkwa": 6390,
  "\u2581deeper": 6391,
  "\u2581detail": 6392,
  "\u2581d\u1ecbla": 6393,
  "\u2581evolution": 6394,
  "\u2581ezuk\u1ecd": 6395,
  "\u2581hunger": 6396,
  "\u2581iduzi": 6397,
  "\u2581influences": 6398,
  "\u2581jobs": 6399,
  "\u2581miss": 6400,
  "\u2581permission": 6401,
  "\u2581sochiri": 6402,
  "\u2581south": 6403,
  "\u2581symbol": 6404,
  "kwas\u1ecbr\u1ecb": 6405,
  "\u2581Evidently": 6406,
  "\u2581House": 6407,
  "\u2581Kenya": 6408,
  "\u2581Learning": 6409,
  "\u2581Put": 6410,
  "\u2581assume": 6411,
  "\u2581b\u1ecbakwute": 6412,
  "\u2581document": 6413,
  "\u2581doubts": 6414,
  "\u2581ekpebiri": 6415,
  "\u2581enduring": 6416,
  "\u2581furu": 6417,
  "\u2581helper": 6418,
  "\u2581honesty": 6419,
  "\u2581ntamu": 6420,
  "\u2581ogo": 6421,
  "\u2581replace": 6422,
  "amamihe": 6423,
  "et": 6424,
  "other": 6425,
  "\u2581Frans": 6426,
  "\u2581Kewap\u1ee5": 6427,
  "\u2581Knowing": 6428,
  "\u2581Near": 6429,
  "\u2581OTU": 6430,
  "\u2581Ruler": 6431,
  "\u2581an\u1ecdr\u1ecd": 6432,
  "\u2581boat": 6433,
  "\u2581floor": 6434,
  "\u2581mkp\u1ecdt\u1ee5": 6435,
  "\u2581nhata": 6436,
  "\u2581nyeworo": 6437,
  "\u2581passage": 6438,
  "\u2581priorities": 6439,
  "\u2581privileged": 6440,
  "\u2581realm": 6441,
  "\u2581version": 6442,
  "\u2581vine": 6443,
  ".[3]": 6444,
  "Go": 6445,
  "meso": 6446,
  "rd": 6447,
  "sa": 6448,
  "\u1ecdgw\u1ee5gw\u1ee5": 6449,
  "\u2581Above": 6450,
  "\u2581HA": 6451,
  "\u2581Italian": 6452,
  "\u2581Long": 6453,
  "\u2581Philippines": 6454,
  "\u2581agabiga": 6455,
  "\u2581agakwuru": 6456,
  "\u2581approaching": 6457,
  "\u2581burn": 6458,
  "\u2581coast": 6459,
  "\u2581disobedience": 6460,
  "\u2581edition": 6461,
  "\u2581etolite": 6462,
  "\u2581expand": 6463,
  "\u2581heads": 6464,
  "\u2581hit": 6465,
  "\u2581kpasuru": 6466,
  "\u2581manuscripts": 6467,
  "\u2581pursuit": 6468,
  "\u2581reflects": 6469,
  "\u2581sources": 6470,
  "\u2581stones": 6471,
  "\u2581t\u1ee5ba": 6472,
  "\u2581\u1ee5hara": 6473,
  "ARA": 6474,
  "Ilu": 6475,
  "Nwa": 6476,
  "ocheeze": 6477,
  "\u25811953": 6478,
  "\u2581Association": 6479,
  "\u2581Iwe": 6480,
  "\u2581Journal": 6481,
  "\u2581Onyinye": 6482,
  "\u2581Report": 6483,
  "\u2581SUBJECT": 6484,
  "\u2581abroad": 6485,
  "\u2581acquainted": 6486,
  "\u2581apleet\u1ecb": 6487,
  "\u2581b\u1ecbaruo": 6488,
  "\u2581conducting": 6489,
  "\u2581crisis": 6490,
  "\u2581dika": 6491,
  "\u2581grant": 6492,
  "\u2581hated": 6493,
  "\u2581leghara": 6494,
  "\u2581meat": 6495,
  "\u2581nkek\u1ecd": 6496,
  "\u2581nucle": 6497,
  "\u2581openly": 6498,
  "\u2581pick": 6499,
  "\u2581realistic": 6500,
  "\u2581weda": 6501,
  "\u2581wrongdoing": 6502,
  "\u2581z\u1ee5ta": 6503,
  "\u2581\u00ccgw\u00e8": 6504,
  "b\u00fa": 6505,
  "esoro": 6506,
  "\u2581Mkpebi": 6507,
  "\u2581Mmehie": 6508,
  "\u2581ad\u1ecbm": 6509,
  "\u2581ages": 6510,
  "\u2581anagide": 6511,
  "\u2581a\u1e45\u1ee5r\u1ee5ma": 6512,
  "\u2581concentration": 6513,
  "\u2581discussing": 6514,
  "\u2581kachan\u1ee5": 6515,
  "\u2581opinions": 6516,
  "\u2581oppression": 6517,
  "\u2581overwhelmed": 6518,
  "\u2581piece": 6519,
  "\u2581willingness": 6520,
  "\u2581\u00f3k\u00e8ala": 6521,
  "\u2581\u1ecag\u1ee5": 6522,
  "\u2581\u1ee5m\u1ee5ntak\u1ecbr\u1ecb": 6523,
  "Onyenwe": 6524,
  "Who": 6525,
  "ably": 6526,
  "gh\u1ecbr\u1ecb": 6527,
  "t\u1ee5begh\u1ecb": 6528,
  "\u25811947": 6529,
  "\u258161": 6530,
  "\u2581Esa": 6531,
  "\u2581Frank": 6532,
  "\u2581ach\u1ee5so": 6533,
  "\u2581agachi": 6534,
  "\u2581badness": 6535,
  "\u2581characters": 6536,
  "\u2581cultivating": 6537,
  "\u2581dakwas\u1ecbr\u1ecb": 6538,
  "\u2581delay": 6539,
  "\u2581desired": 6540,
  "\u2581ejizi": 6541,
  "\u2581ensure": 6542,
  "\u2581farmers": 6543,
  "\u2581hoped": 6544,
  "\u2581humankind": 6545,
  "\u2581isiala": 6546,
  "\u2581linked": 6547,
  "\u2581m\u1ee5wara": 6548,
  "\u2581nap\u1ee5tara": 6549,
  "\u2581weekly": 6550,
  "\u2581\u1ecbch\u1ecbisi": 6551,
  "Happy": 6552,
  "ial": 6553,
  "right": 6554,
  "t\u1ecd": 6555,
  "\u1ee5s\u1ecd": 6556,
  "\u25811939": 6557,
  "\u2581Again": 6558,
  "\u2581An\u1ee5": 6559,
  "\u2581Betlehem": 6560,
  "\u2581Ki": 6561,
  "\u2581ah\u1ee5kar\u1ecb": 6562,
  "\u2581drop": 6563,
  "\u2581friendly": 6564,
  "\u2581party": 6565,
  "\u2581publicly": 6566,
  "\u2581rage": 6567,
  "\u2581reasoned": 6568,
  "\u2581remnant": 6569,
  "\u2581rewards": 6570,
  "\u2581talked": 6571,
  "\u2581tools": 6572,
  "\u2581\u1ecbm\u1ee5takwu": 6573,
  "Ozi\u1ecdma": 6574,
  "ally": 6575,
  "mega": 6576,
  "my": 6577,
  "tion": 6578,
  "\u00d2nye": 6579,
  "\u1ee5ra": 6580,
  "\u25811941": 6581,
  "\u258152": 6582,
  "\u2581Choose": 6583,
  "\u2581DO": 6584,
  "\u2581End": 6585,
  "\u2581Free": 6586,
  "\u2581Jos\u00e9": 6587,
  "\u2581Lines": 6588,
  "\u2581ab\u1ecbakwute": 6589,
  "\u2581ichere": 6590,
  "\u2581l\u1ecdtara": 6591,
  "\u2581obstacles": 6592,
  "\u2581sat": 6593,
  "\u2581sentence": 6594,
  "\u2581suitable": 6595,
  "\u2581supporting": 6596,
  "ical": 6597,
  "\u2581Application": 6598,
  "\u2581Asa": 6599,
  "\u2581Bethlehem": 6600,
  "\u2581Canaan": 6601,
  "\u2581Echere": 6602,
  "\u2581Wisdom": 6603,
  "\u2581agbag\u1ecd": 6604,
  "\u2581akp\u1ecbr\u1ecb": 6605,
  "\u2581bought": 6606,
  "\u2581bow": 6607,
  "\u2581cultures": 6608,
  "\u2581demand": 6609,
  "\u2581diligent": 6610,
  "\u2581dollar": 6611,
  "\u2581donations": 6612,
  "\u2581ebugh\u1ecb": 6613,
  "\u2581encountered": 6614,
  "\u2581hates": 6615,
  "\u2581journal": 6616,
  "\u2581portion": 6617,
  "\u2581possibility": 6618,
  "\u2581seeming": 6619,
  "\u2581solve": 6620,
  "\u2581tragedy": 6621,
  "\u2581witnessed": 6622,
  "\u2581\u1ecbgha": 6623,
  "\u2581\u1ecdk\u00e0iwu": 6624,
  "gi": 6625,
  "ilu": 6626,
  "ish": 6627,
  "ph": 6628,
  "\u258128]": 6629,
  "\u2581Become": 6630,
  "\u2581G\u1ee4\u1ecc": 6631,
  "\u2581Jephthah": 6632,
  "\u2581agaragh\u1ecb": 6633,
  "\u2581arose": 6634,
  "\u2581asleep": 6635,
  "\u2581bish\u1ecdp": 6636,
  "\u2581driving": 6637,
  "\u2581ekwek\u1ecdgh\u1ecb": 6638,
  "\u2581hiri": 6639,
  "\u2581missing": 6640,
  "\u2581movement": 6641,
  "\u2581pursuits": 6642,
  "\u2581resort": 6643,
  "\u2581senses": 6644,
  "\u2581teens": 6645,
  "\u2581D\u1ecb\u1ecbr\u1ecb": 6646,
  "\u2581Eshia": 6647,
  "\u2581Maya": 6648,
  "\u2581Rebekah": 6649,
  "\u2581afternoon": 6650,
  "\u2581declaring": 6651,
  "\u2581discover": 6652,
  "\u2581disorder": 6653,
  "\u2581earnest": 6654,
  "\u2581eleda": 6655,
  "\u2581ete": 6656,
  "\u2581experiencing": 6657,
  "\u2581nt\u1ee5p\u1ecd": 6658,
  "\u2581nweworo": 6659,
  "\u2581sheba": 6660,
  "Efes\u1ecds": 6661,
  "dakp\u1ecd": 6662,
  "wooro": 6663,
  "\u2581Dead": 6664,
  "\u2581Knowledge": 6665,
  "\u2581Minor": 6666,
  "\u2581Ru": 6667,
  "\u2581Search": 6668,
  "\u2581Years": 6669,
  "\u2581ar\u1ee5m\u1ee5ka": 6670,
  "\u2581bute": 6671,
  "\u2581ch\u1ecdwa": 6672,
  "\u2581deception": 6673,
  "\u2581disappointed": 6674,
  "\u2581ear": 6675,
  "\u2581earn": 6676,
  "\u2581ebido": 6677,
  "\u2581equipped": 6678,
  "\u2581f\u1ecdd\u1ee5r\u1ee5n\u1ee5": 6679,
  "\u2581globe": 6680,
  "\u2581mkp\u1ecdsa": 6681,
  "\u2581offerings": 6682,
  "\u2581overwhelming": 6683,
  "\u2581unexpected": 6684,
  "\u2581\u1ecct\u1ecdd\u1ecdks": 6685,
  "ance": 6686,
  "elekere": 6687,
  "l\u1ee5": 6688,
  "\u2581103": 6689,
  "\u25811950,": 6690,
  "\u2581Additionally": 6691,
  "\u2581Habakuk": 6692,
  "\u2581Jen": 6693,
  "\u2581Lamb": 6694,
  "\u2581Purpose": 6695,
  "\u2581ab\u1ee5wo": 6696,
  "\u2581avoided": 6697,
  "\u2581central": 6698,
  "\u2581commonly": 6699,
  "\u2581d\u1ecbbegh\u1ecb": 6700,
  "\u2581enyewo": 6701,
  "\u2581hardships": 6702,
  "\u2581kinds": 6703,
  "\u2581memories": 6704,
  "\u2581records": 6705,
  "\u2581refrain": 6706,
  "\u2581shoulder": 6707,
  "\u2581\u1ecbgbal\u1ecbsi": 6708,
  "\u2581\u1ecbnata": 6709,
  "ab\u1ee5": 6710,
  "agb\u1ee5r\u1ee5": 6711,
  "ire": 6712,
  "ju": 6713,
  "most": 6714,
  "wala": 6715,
  "\u258132,": 6716,
  "\u2581CHINEKE": 6717,
  "\u2581Niu": 6718,
  "\u2581Numbers": 6719,
  "\u2581ach\u1ee5m": 6720,
  "\u2581admitted": 6721,
  "\u2581emega": 6722,
  "\u2581facilities": 6723,
  "\u2581g\u1ecbnwa": 6724,
  "\u2581handed": 6725,
  "\u2581heal": 6726,
  "\u2581intelligent": 6727,
  "\u2581intimate": 6728,
  "\u2581kap\u1ecbr\u1ecb": 6729,
  "\u2581lacking": 6730,
  "\u2581largest": 6731,
  "\u2581prefer": 6732,
  "\u2581professional": 6733,
  "\u2581redio": 6734,
  "\u2581select": 6735,
  "\u2581shame": 6736,
  "\u2581voluntary": 6737,
  "\u2581zealously": 6738,
  "\u2581zoo": 6739,
  "are": 6740,
  "chabegh\u1ecb": 6741,
  "gas\u1ecb": 6742,
  "ng": 6743,
  "\u1ecct\u1ee5t\u1ee5": 6744,
  "\u258173": 6745,
  "\u2581Ch\u1ecdr\u1ecd": 6746,
  "\u2581Iyi": 6747,
  "\u2581Teacher": 6748,
  "\u2581ach\u1ecdr\u1ecd": 6749,
  "\u2581beat": 6750,
  "\u2581containing": 6751,
  "\u2581effectively": 6752,
  "\u2581emebu": 6753,
  "\u2581execute": 6754,
  "\u2581fled": 6755,
  "\u2581gbakwara": 6756,
  "\u2581nakwere": 6757,
  "\u2581press": 6758,
  "\u2581settled": 6759,
  "\u2581shine": 6760,
  "\u2581testimony": 6761,
  "\u2581t\u1ee5\u1ee5r\u1ee5": 6762,
  "\u2581warnings": 6763,
  "\u2581wayo": 6764,
  "\u2581\u1ecantanet": 6765,
  "ah\u1ee5h\u1ee5": 6766,
  "ho": 6767,
  "ists": 6768,
  "wor\u1ecb": 6769,
  "\u2581Aga": 6770,
  "\u2581Eph": 6771,
  "\u2581Eric": 6772,
  "\u2581Esau": 6773,
  "\u2581Nd\u1ecbda": 6774,
  "\u2581ag\u1ee5r\u1ee5": 6775,
  "\u2581bright": 6776,
  "\u2581chronic": 6777,
  "\u2581commitment": 6778,
  "\u2581courageously": 6779,
  "\u2581gbakw\u1ee5nyere": 6780,
  "\u2581highlight": 6781,
  "\u2581ibelata": 6782,
  "\u2581maliteghachi": 6783,
  "\u2581operation": 6784,
  "\u2581positions": 6785,
  "\u2581surrounding": 6786,
  "\u2581s\u1ecd": 6787,
  "\u2581viewing": 6788,
  "\u2581\u1ecbr\u1ee5si": 6789,
  "\u2581\u1ecdk\u1ee5k\u1ecd": 6790,
  "b\u00e1": 6791,
  "good": 6792,
  "\u258124;": 6793,
  "\u2581Modern": 6794,
  "\u2581Nhazi": 6795,
  "\u2581comforted": 6796,
  "\u2581eriri": 6797,
  "\u2581esogh\u1ecb": 6798,
  "\u2581fulfilling": 6799,
  "\u2581healed": 6800,
  "\u2581identifie": 6801,
  "\u2581kpalie": 6802,
  "\u2581paragraphs": 6803,
  "\u2581shadow": 6804,
  "\u2581sole": 6805,
  "\u2581upset": 6806,
  "\u2581volunteer": 6807,
  "sie": 6808,
  "\u25811991": 6809,
  "\u2581Display": 6810,
  "\u2581Everyone": 6811,
  "\u2581Jean": 6812,
  "\u2581MY": 6813,
  "\u2581Milton": 6814,
  "\u2581attractive": 6815,
  "\u2581electronic": 6816,
  "\u2581enyefe": 6817,
  "\u2581enyegh\u1ecb": 6818,
  "\u2581forest": 6819,
  "\u2581nkebi": 6820,
  "\u2581philosophy": 6821,
  "\u2581plenty": 6822,
  "\u2581rendering": 6823,
  "\u2581uphold": 6824,
  "\u2581\u1ecblaghachi": 6825,
  "igbe": 6826,
  "\u2581Mo": 6827,
  "\u2581Orthodox": 6828,
  "\u2581Osisi": 6829,
  "\u2581Simon": 6830,
  "\u2581Studies": 6831,
  "\u2581WHEN": 6832,
  "\u2581ach\u1ecdkar\u1ecb": 6833,
  "\u2581ad\u1ecdgbu": 6834,
  "\u2581considerable": 6835,
  "\u2581deserve": 6836,
  "\u2581famine": 6837,
  "\u2581footnote": 6838,
  "\u2581gaining": 6839,
  "\u2581kwubiri": 6840,
  "\u2581nweziri": 6841,
  "\u2581ogbu": 6842,
  "\u2581omekome": 6843,
  "\u2581pen": 6844,
  "\u2581sides": 6845,
  "\u2581specifically": 6846,
  "\u2581submit": 6847,
  "\u2581virus": 6848,
  "\u2581\u1ecdgh\u1ecdm": 6849,
  "day": 6850,
  "ward": 6851,
  "\u1ecdzara": 6852,
  "\u2581Col": 6853,
  "\u2581Faithful": 6854,
  "\u2581Index": 6855,
  "\u2581Neomi": 6856,
  "\u2581Rose": 6857,
  "\u2581Start": 6858,
  "\u2581Zephaniah": 6859,
  "\u2581belongings": 6860,
  "\u2581comparison": 6861,
  "\u2581conform": 6862,
  "\u2581cure": 6863,
  "\u2581despair": 6864,
  "\u2581era": 6865,
  "\u2581fruits": 6866,
  "\u2581increasingly": 6867,
  "\u2581kachas\u1ecb": 6868,
  "\u2581meziri": 6869,
  "\u2581mode": 6870,
  "\u2581originally": 6871,
  "\u2581prize": 6872,
  "\u2581salt": 6873,
  "\u2581sending": 6874,
  "\u2581teenagers": 6875,
  "\u2581wood": 6876,
  "\u1ecdh\u1ecba": 6877,
  "\u25813,000": 6878,
  "\u2581As\u1ee5s\u1ee5": 6879,
  "\u2581Bu": 6880,
  "\u2581Central": 6881,
  "\u2581Leader": 6882,
  "\u2581Mom": 6883,
  "\u2581Volume": 6884,
  "\u2581arrive": 6885,
  "\u2581dekwara": 6886,
  "\u2581expects": 6887,
  "\u2581flood": 6888,
  "\u2581kewap\u1ee5": 6889,
  "\u2581kwanyere": 6890,
  "\u2581lion": 6891,
  "\u2581loyally": 6892,
  "\u2581mentions": 6893,
  "\u2581namely": 6894,
  "\u2581okwute": 6895,
  "\u2581previous": 6896,
  "\u2581stumble": 6897,
  "\u2581widows": 6898,
  "ent": 6899,
  "\u1ee4L\u1ecc": 6900,
  "\u25811958": 6901,
  "\u2581R\u1ecdsh\u1ecba": 6902,
  "\u2581abusive": 6903,
  "\u2581ba": 6904,
  "\u2581catch": 6905,
  "\u2581correction": 6906,
  "\u2581demands": 6907,
  "\u2581echegh\u1ecb": 6908,
  "\u2581islands": 6909,
  "\u2581kingdoms": 6910,
  "\u2581manage": 6911,
  "\u2581measures": 6912,
  "\u2581milk": 6913,
  "\u2581rebellious": 6914,
  "\u2581steal": 6915,
  "\u2581taxes": 6916,
  "\u2581teen": 6917,
  "\u2581tobacco": 6918,
  "\u2581\u1ecam\u1ee5": 6919,
  "\u2581\u1ecbkasi": 6920,
  "gbag\u1ecdr\u1ecd": 6921,
  "nyeere": 6922,
  "\u258100:00": 6923,
  "\u2581Bara": 6924,
  "\u2581Creation": 6925,
  "\u2581En": 6926,
  "\u2581Levites": 6927,
  "\u2581PM": 6928,
  "\u2581Peshia": 6929,
  "\u2581Sabbath": 6930,
  "\u2581agbahap\u1ee5": 6931,
  "\u2581ah\u1ee5r\u1ee5": 6932,
  "\u2581announced": 6933,
  "\u2581at\u1ecdkwa": 6934,
  "\u2581buildings": 6935,
  "\u2581bus": 6936,
  "\u2581ch\u1ee5p\u1ee5": 6937,
  "\u2581eko": 6938,
  "\u2581erubegh\u1ecb": 6939,
  "\u2581informed": 6940,
  "\u2581kpa": 6941,
  "\u2581lebara": 6942,
  "\u2581lines": 6943,
  "\u2581marriages": 6944,
  "\u2581miraculously": 6945,
  "\u2581obvious": 6946,
  "\u2581repent": 6947,
  "\u2581surprising": 6948,
  "\u2581temptations": 6949,
  "\u2581\u1ecbsa": 6950,
  "\u2581\u1ee5nw\u1ee5": 6951,
  "Mechie": 6952,
  "time": 6953,
  "\u1ecdr\u1ecba": 6954,
  "\u25811,000": 6955,
  "\u2581120": 6956,
  "\u258141.": 6957,
  "\u2581Briten": 6958,
  "\u2581Department": 6959,
  "\u2581Maintain": 6960,
  "\u2581Power": 6961,
  "\u2581Rehab": 6962,
  "\u2581ab\u1ee5ba": 6963,
  "\u2581afflicted": 6964,
  "\u2581agh\u1ecdr\u1ecd": 6965,
  "\u2581akpachi": 6966,
  "\u2581buuru": 6967,
  "\u2581classmates": 6968,
  "\u2581climate": 6969,
  "\u2581crowds": 6970,
  "\u2581deceived": 6971,
  "\u2581defense": 6972,
  "\u2581design": 6973,
  "\u2581duhie": 6974,
  "\u2581edge": 6975,
  "\u2581egbukep\u1ee5": 6976,
  "\u2581ehichap\u1ee5": 6977,
  "\u2581extraordinary": 6978,
  "\u2581ikele": 6979,
  "\u2581kpagburu": 6980,
  "\u2581maintained": 6981,
  "\u2581makwaara": 6982,
  "\u2581rara": 6983,
  "\u2581streets": 6984,
  "\u2581waste": 6985,
  "\u2581whenever": 6986,
  "\u2581\u00e1tr\u012bb\u00fa\u00f9t\u00f9": 6987,
  "nwa": 6988,
  "ol": 6989,
  "\u2581Grand": 6990,
  "\u2581LIFE": 6991,
  "\u2581Lessons": 6992,
  "\u2581Public": 6993,
  "\u2581Trust": 6994,
  "\u2581Zion": 6995,
  "\u2581border": 6996,
  "\u2581cried": 6997,
  "\u2581difficulty": 6998,
  "\u2581emenye": 6999,
  "\u2581householder": 7000,
  "\u2581hungry": 7001,
  "\u2581ili": 7002,
  "\u2581ke\u1ee5l\u1ecd": 7003,
  "\u2581olulu": 7004,
  "\u2581rute": 7005,
  "\u2581sorrow": 7006,
  "\u2581striving": 7007,
  "\u2581thoroughly": 7008,
  "\u2581trustworthy": 7009,
  "\u2581\u1ecdd\u1ecbbend\u1ecb": 7010,
  "\u2581\u1ee5f\u1ee5": 7011,
  "dia": 7012,
  "k\u1ecdtara": 7013,
  "\u2581Con": 7014,
  "\u2581Pray": 7015,
  "\u2581Quebec": 7016,
  "\u2581Reading": 7017,
  "\u2581Reflect": 7018,
  "\u2581Ten": 7019,
  "\u2581attracted": 7020,
  "\u2581compromise": 7021,
  "\u2581documents": 7022,
  "\u2581ekwenye": 7023,
  "\u2581emeghachi": 7024,
  "\u2581endless": 7025,
  "\u2581errors": 7026,
  "\u2581esikwu": 7027,
  "\u2581exact": 7028,
  "\u2581flow": 7029,
  "\u2581highest": 7030,
  "\u2581nagide": 7031,
  "\u2581native": 7032,
  "\u2581perfectly": 7033,
  "\u2581prior": 7034,
  "\u2581sexually": 7035,
  "\u2581staff": 7036,
  "\u2581stage": 7037,
  "\u2581supposed": 7038,
  "\u2581worldly": 7039,
  "\u2581\u1ecdhaneze": 7040,
  "g\u1ee5": 7041,
  "kwuoro": 7042,
  "\u2581300001,": 7043,
  "\u2581Answers": 7044,
  "\u2581Last": 7045,
  "\u2581Sweden": 7046,
  "\u2581Zuru": 7047,
  "\u2581akas\u1ecb": 7048,
  "\u2581board": 7049,
  "\u2581chefuo": 7050,
  "\u2581ch\u1ecdkwuru": 7051,
  "\u2581commendation": 7052,
  "\u2581declaration": 7053,
  "\u2581distributed": 7054,
  "\u2581gawara": 7055,
  "\u2581highlights": 7056,
  "\u2581joyfully": 7057,
  "\u2581nch\u1ecdnch\u1ecd": 7058,
  "\u2581online": 7059,
  "\u2581periods": 7060,
  "\u2581permanently": 7061,
  "\u2581produces": 7062,
  "\u2581producing": 7063,
  "\u2581s\u00ed": 7064,
  "\u2581\u1ecbb\u1ecbaru": 7065,
  "aj\u1ecd": 7066,
  "angelic": 7067,
  "ksp\u0113\u00e8s\u00ec": 7068,
  "\u1ee4b\u1ecdch\u1ecb": 7069,
  "\u2581&": 7070,
  "\u25811944": 7071,
  "\u258162": 7072,
  "\u258186": 7073,
  "\u2581Afr\u1ecbka": 7074,
  "\u2581Barnabas": 7075,
  "\u2581Ikike": 7076,
  "\u2581Interestingly": 7077,
  "\u2581List": 7078,
  "\u2581Nazaret": 7079,
  "\u2581Ribeka": 7080,
  "\u2581Ta\u1ecbt\u1ecds": 7081,
  "\u2581adolescent": 7082,
  "\u2581agh\u1ecdwo": 7083,
  "\u2581agw\u1ee5la": 7084,
  "\u2581assemblies": 7085,
  "\u2581billions": 7086,
  "\u2581detailed": 7087,
  "\u2581double": 7088,
  "\u2581ekwetagh\u1ecb": 7089,
  "\u2581entirely": 7090,
  "\u2581funds": 7091,
  "\u2581governing": 7092,
  "\u2581illustrated": 7093,
  "\u2581kwadebere": 7094,
  "\u2581photo": 7095,
  "\u2581projects": 7096,
  "\u2581qualify": 7097,
  "\u2581rid": 7098,
  "\u2581roof": 7099,
  "\u2581stands": 7100,
  "\u2581\u00d9gw\u00f9": 7101,
  "\u2581\u00f9": 7102,
  "\u2581\u1ecbz\u1ecdp\u1ee5ta": 7103,
  "AL": 7104,
  "NYERE": 7105,
  "RE": 7106,
  "itinye": 7107,
  "type": 7108,
  "\u25811951": 7109,
  "\u2581AJ\u1ee4J\u1ee4": 7110,
  "\u2581Banabas": 7111,
  "\u2581Daily": 7112,
  "\u2581Divine": 7113,
  "\u2581Far": 7114,
  "\u2581In\u1ecdk": 7115,
  "\u2581Jud": 7116,
  "\u2581Mosis": 7117,
  "\u2581Portuguese": 7118,
  "\u2581S\u1ecdd\u1ecdm": 7119,
  "\u2581ach\u1ecd\u1ecd": 7120,
  "\u2581associating": 7121,
  "\u2581communities": 7122,
  "\u2581criminal": 7123,
  "\u2581daba": 7124,
  "\u2581distinguish": 7125,
  "\u2581driver": 7126,
  "\u2581dropped": 7127,
  "\u2581duties": 7128,
  "\u2581explaining": 7129,
  "\u2581mgbaba": 7130,
  "\u2581perspective": 7131,
  "\u2581presentation": 7132,
  "\u2581proclaimers": 7133,
  "\u2581strike": 7134,
  "\u2581traditions": 7135,
  "\u2581tragic": 7136,
  "\u2581ube": 7137,
  "\u2581\u00cch\u00e8": 7138,
  "\u2581\u1ecbgakwuru": 7139,
  "\u2581\u1ecbkwadebe": 7140,
  "b\u1ecbara": 7141,
  "so": 7142,
  "there": 7143,
  "\u2581Hindu": 7144,
  "\u2581Illustrate": 7145,
  "\u2581Imitate": 7146,
  "\u2581Inye": 7147,
  "\u2581Joy": 7148,
  "\u2581Jude": 7149,
  "\u2581Menu": 7150,
  "\u2581Possible": 7151,
  "\u2581Real": 7152,
  "\u2581Speaking": 7153,
  "\u2581Tom": 7154,
  "\u2581admonished": 7155,
  "\u2581atachi": 7156,
  "\u2581bottom": 7157,
  "\u2581classes": 7158,
  "\u2581concept": 7159,
  "\u2581dib\u1ecba": 7160,
  "\u2581emered\u1ecbkach\u1ecdr\u1ecd": 7161,
  "\u2581examining": 7162,
  "\u2581expensive": 7163,
  "\u2581hel": 7164,
  "\u2581idina": 7165,
  "\u2581makwa": 7166,
  "\u2581minor": 7167,
  "\u2581pieces": 7168,
  "\u2581receives": 7169,
  "\u2581reproach": 7170,
  "\u2581resentment": 7171,
  "\u2581strongly": 7172,
  "\u2581wep\u1ee5r\u1ee5": 7173,
  "duhie": 7174,
  "k\u1ecdwa": 7175,
  "\u25811992": 7176,
  "\u2581Add": 7177,
  "\u2581Ebee": 7178,
  "\u2581Failed": 7179,
  "\u2581Japanese": 7180,
  "\u2581Kp\u1ecdr\u1ecd": 7181,
  "\u2581Nebukadneza": 7182,
  "\u2581Washington": 7183,
  "\u2581ch\u1ecb": 7184,
  "\u2581disappointment": 7185,
  "\u2581happily": 7186,
  "\u2581hesitate": 7187,
  "\u2581incident": 7188,
  "\u2581industry": 7189,
  "\u2581kirie": 7190,
  "\u2581mer\u1ee5\u1ecd": 7191,
  "\u2581nrara": 7192,
  "\u2581prospects": 7193,
  "\u2581radio": 7194,
  "\u2581respects": 7195,
  "\u2581speed": 7196,
  "\u2581\u00cd": 7197,
  "bakwara": 7198,
  "mmad\u1ee5": 7199,
  "ors": 7200,
  "\u2581ABOUT": 7201,
  "\u2581Ah\u1ee5mah\u1ee5": 7202,
  "\u2581Baruch": 7203,
  "\u2581General": 7204,
  "\u2581Gidi\u1ecdn": 7205,
  "\u2581Nz\u1ecdp\u1ee5ta": 7206,
  "\u2581Secret": 7207,
  "\u2581Tak": 7208,
  "\u2581agakwa": 7209,
  "\u2581backing": 7210,
  "\u2581base": 7211,
  "\u2581centered": 7212,
  "\u2581clock": 7213,
  "\u2581confronted": 7214,
  "\u2581domestic": 7215,
  "\u2581east": 7216,
  "\u2581eguzo": 7217,
  "\u2581enup\u1ee5r\u1ee5": 7218,
  "\u2581fed": 7219,
  "\u2581kwuokwa": 7220,
  "\u2581kwuwer\u1ecb": 7221,
  "\u2581larger": 7222,
  "\u2581manifested": 7223,
  "\u2581neglect": 7224,
  "\u2581obeyed": 7225,
  "\u2581rejoicing": 7226,
  "\u2581senti": 7227,
  "\u2581settle": 7228,
  "\u2581struggling": 7229,
  "\u2581unbeliev": 7230,
  "\u2581understands": 7231,
  "\u2581vain": 7232,
  "gainst": 7233,
  "io": 7234,
  "ld": 7235,
  "\u25811931": 7236,
  "\u25811942": 7237,
  "\u2581Ach\u1ecdr\u1ecd": 7238,
  "\u2581Ah\u1ee5h\u1ee5": 7239,
  "\u2581Codex": 7240,
  "\u2581GOD": 7241,
  "\u2581Moscow": 7242,
  "\u2581Ninive": 7243,
  "\u2581a\u1e45a": 7244,
  "\u2581boldness": 7245,
  "\u2581b\u1ee5cha": 7246,
  "\u2581consult": 7247,
  "\u2581devastating": 7248,
  "\u2581disposition": 7249,
  "\u2581foods": 7250,
  "\u2581g\u1ee5tara": 7251,
  "\u2581handled": 7252,
  "\u2581kpughere": 7253,
  "\u2581meantime": 7254,
  "\u2581ndabere": 7255,
  "\u2581occurs": 7256,
  "\u2581shield": 7257,
  "\u2581spiritism": 7258,
  "\u2581teenage": 7259,
  "\u2581thrilled": 7260,
  "\u2581weigh": 7261,
  "\u2581\u1ecbk\u1ee5zi": 7262,
  "\u2581\u1ee4gb\u1ecd": 7263,
  "now": 7264,
  "\u00ech\u00e8": 7265,
  "\u2581Arthur": 7266,
  "\u2581Jeroboam": 7267,
  "\u2581Naijiria": 7268,
  "\u2581Ohio": 7269,
  "\u2581Rahab": 7270,
  "\u2581ab\u1ecbaru": 7271,
  "\u2581ah\u1ee5wo": 7272,
  "\u2581applet": 7273,
  "\u2581bones": 7274,
  "\u2581corner": 7275,
  "\u2581crushed": 7276,
  "\u2581d\u1ecbbu": 7277,
  "\u2581ejiriwo": 7278,
  "\u2581everyday": 7279,
  "\u2581expectation": 7280,
  "\u2581gbasoo": 7281,
  "\u2581hurtful": 7282,
  "\u2581igwu": 7283,
  "\u2581jigh\u1ecb": 7284,
  "\u2581nr\u1ee5r\u1ee5": 7285,
  "\u2581nuklia": 7286,
  "\u2581onto": 7287,
  "\u2581permit": 7288,
  "\u2581utmost": 7289,
  "egwuregwu": 7290,
  "h\u1ee5r\u1ee5": 7291,
  "new": 7292,
  "ov": 7293,
  "\u2581Helen": 7294,
  "\u2581Louis": 7295,
  "\u2581Meanwhile": 7296,
  "\u2581Psalms": 7297,
  "\u2581P\u1ecba": 7298,
  "\u2581Story": 7299,
  "\u2581alongside": 7300,
  "\u2581backgrounds": 7301,
  "\u2581badly": 7302,
  "\u2581dialog": 7303,
  "\u2581ebemkpofuozi": 7304,
  "\u2581emebegh\u1ecb": 7305,
  "\u2581exile": 7306,
  "\u2581hie": 7307,
  "\u2581presents": 7308,
  "\u2581productive": 7309,
  "\u2581p\u1ee5takwara": 7310,
  "\u2581resident": 7311,
  "\u2581steadfast": 7312,
  "\u2581yield": 7313,
  "Eshia": 7314,
  "ad": 7315,
  "oche": 7316,
  "was": 7317,
  "\u258143.": 7318,
  "\u2581Consequently": 7319,
  "\u2581Truly": 7320,
  "\u2581advanced": 7321,
  "\u2581akpar\u1ecb": 7322,
  "\u2581b\u1ecds": 7323,
  "\u2581continuing": 7324,
  "\u2581emeghar\u1ecb": 7325,
  "\u2581enup\u1ee5": 7326,
  "\u2581fiery": 7327,
  "\u2581filling": 7328,
  "\u2581neutral": 7329,
  "\u2581nn\u1ecdchiteanya": 7330,
  "\u2581outcry": 7331,
  "\u2581promoted": 7332,
  "\u2581resurrect": 7333,
  "\u2581sites": 7334,
  "\u2581s\u1ecdkwara": 7335,
  "\u2581tempered": 7336,
  "\u2581th": 7337,
  "\u2581t\u1ecdhap\u1ee5r\u1ee5": 7338,
  "\u2581worst": 7339,
  "\u2581wusiri": 7340,
  "ah\u1ecba": 7341,
  "ci": 7342,
  "igosi": 7343,
  "nyefe": 7344,
  "ut": 7345,
  "\u258129;": 7346,
  "\u2581Calvin": 7347,
  "\u2581Co": 7348,
  "\u2581Miriam": 7349,
  "\u2581ad\u1ecdta": 7350,
  "\u2581al\u1ee5gh\u1ecb": 7351,
  "\u2581an\u1ecdkar\u1ecb": 7352,
  "\u2581applications": 7353,
  "\u2581appointment": 7354,
  "\u2581ban": 7355,
  "\u2581believer": 7356,
  "\u2581bride": 7357,
  "\u2581card": 7358,
  "\u2581code": 7359,
  "\u2581cultural": 7360,
  "\u2581cycle": 7361,
  "\u2581echu": 7362,
  "\u2581ekpenta": 7363,
  "\u2581empire": 7364,
  "\u2581expose": 7365,
  "\u2581falling": 7366,
  "\u2581favorable": 7367,
  "\u2581fought": 7368,
  "\u2581generosity": 7369,
  "\u2581highlighted": 7370,
  "\u2581ikwur\u1ecbta": 7371,
  "\u2581je": 7372,
  "\u2581kpuru": 7373,
  "\u2581kwuchara": 7374,
  "\u2581locations": 7375,
  "\u2581metal": 7376,
  "\u2581roads": 7377,
  "\u2581sek\u1ecdndr\u1ecb": 7378,
  "\u2581technology": 7379,
  "\u2581unwise": 7380,
  "\u2581urgency": 7381,
  "\u2581virtual": 7382,
  "aj\u1ee5j\u1ee5": 7383,
  "onyinyo": 7384,
  "t\u1ee5gh\u1ecb": 7385,
  "\u1eccd\u1ecbd\u1ecb": 7386,
  "\u258157": 7387,
  "\u2581B\u1ee5la": 7388,
  "\u2581Judge": 7389,
  "\u2581Persian": 7390,
  "\u2581Portugal": 7391,
  "\u2581Serving": 7392,
  "\u2581Sisera": 7393,
  "\u2581Sodom": 7394,
  "\u2581[\"": 7395,
  "\u2581associations": 7396,
  "\u2581commented": 7397,
  "\u2581destructive": 7398,
  "\u2581d\u1ecbn\u1ee5": 7399,
  "\u2581izute": 7400,
  "\u2581judged": 7401,
  "\u2581lifetime": 7402,
  "\u2581ns\u1ecdt\u1ee5": 7403,
  "\u2581soldier": 7404,
  "\u2581surgery": 7405,
  "\u2581tasks": 7406,
  "\u2581tongues": 7407,
  "Z": 7408,
  "ibu": 7409,
  "mm\u1ee5\u1ecd": 7410,
  "\u00da": 7411,
  "\u25811955": 7412,
  "\u258163": 7413,
  "\u2581Switch": 7414,
  "\u2581Zekaraya": 7415,
  "\u2581agbakw\u1ee5nye": 7416,
  "\u2581b\u1ecdl": 7417,
  "\u2581contentment": 7418,
  "\u2581dollars": 7419,
  "\u2581ease": 7420,
  "\u2581ekwela": 7421,
  "\u2581fat": 7422,
  "\u2581function": 7423,
  "\u2581imitating": 7424,
  "\u2581improper": 7425,
  "\u2581inspiring": 7426,
  "\u2581kwuziri": 7427,
  "\u2581mmej\u1ecd": 7428,
  "\u2581oppose": 7429,
  "\u2581refugees": 7430,
  "\u2581succeeded": 7431,
  "\u2581\u1ee4gw\u1ecd": 7432,
  "ROM": 7433,
  "l\u1ee5mdi": 7434,
  "za": 7435,
  "\u2581Alex": 7436,
  "\u2581Anagh\u1ecb": 7437,
  "\u2581Kw\u1ee5s\u1ecb": 7438,
  "\u2581Likely": 7439,
  "\u2581Mgbal\u1ecb": 7440,
  "\u2581M\u1ee4R\u1ee4": 7441,
  "\u2581Teaching": 7442,
  "\u2581WAS": 7443,
  "\u2581Zere": 7444,
  "\u2581actual": 7445,
  "\u2581akwali": 7446,
  "\u2581amamikpe": 7447,
  "\u2581anw\u1ee5r\u1ee5": 7448,
  "\u2581at\u1ee5si": 7449,
  "\u2581doors": 7450,
  "\u2581esoro": 7451,
  "\u2581handling": 7452,
  "\u2581independence": 7453,
  "\u2581repair": 7454,
  "\u2581sanctified": 7455,
  "\u2581sing": 7456,
  "\u2581sleeping": 7457,
  "\u2581translators": 7458,
  "\u2581tum": 7459,
  "\u2581unfaithful": 7460,
  "\u2581\u00e0kw\u00e0": 7461,
  "\u2581\u1eccR\u1ee4": 7462,
  "\u2581\u1eccnwa": 7463,
  "Gaa": 7464,
  "Young": 7465,
  "debata": 7466,
  "from": 7467,
  "kwusaara": 7468,
  "\u25811948": 7469,
  "\u25811949": 7470,
  "\u2581Elegh\u1ecb": 7471,
  "\u2581Middle": 7472,
  "\u2581Nchegbu": 7473,
  "\u2581Pr\u1ecdfes\u1ecd": 7474,
  "\u2581Theocratic": 7475,
  "\u2581Vatican": 7476,
  "\u2581clay": 7477,
  "\u2581creative": 7478,
  "\u2581ekpebie": 7479,
  "\u2581haughty": 7480,
  "\u2581headship": 7481,
  "\u2581hoping": 7482,
  "\u2581ideal": 7483,
  "\u2581idols": 7484,
  "\u2581kwenyere": 7485,
  "\u2581lonely": 7486,
  "\u2581nkwonkwo": 7487,
  "\u2581parse": 7488,
  "\u2581prais": 7489,
  "\u2581reflecting": 7490,
  "\u2581requirement": 7491,
  "\u2581risks": 7492,
  "\u2581rivers": 7493,
  "\u2581tool": 7494,
  "\u2581winter": 7495,
  "\u2581\u1eccdachi": 7496,
  "Ezi": 7497,
  "India": 7498,
  "m\u1ee5tara": 7499,
  "\u00e3o": 7500,
  "\u2581110": 7501,
  "\u25812016": 7502,
  "\u25812]": 7503,
  "\u258130:": 7504,
  "\u2581Egyptians": 7505,
  "\u2581Food": 7506,
  "\u2581Friend": 7507,
  "\u2581Self": 7508,
  "\u2581accurately": 7509,
  "\u2581agb\u1ee5": 7510,
  "\u2581akp\u1ecdku": 7511,
  "\u2581dramatic": 7512,
  "\u2581dugara": 7513,
  "\u2581emphasized": 7514,
  "\u2581enjoyable": 7515,
  "\u2581eternity": 7516,
  "\u2581follows": 7517,
  "\u2581gbaghaara": 7518,
  "\u2581ice": 7519,
  "\u2581jealousy": 7520,
  "\u2581kp\u1ecdp\u1ee5ta": 7521,
  "\u2581launch": 7522,
  "\u2581mmechi": 7523,
  "\u2581mm\u1ee5ba": 7524,
  "\u2581nkeji": 7525,
  "\u2581passages": 7526,
  "\u2581references": 7527,
  "\u2581separated": 7528,
  "\u2581sharp": 7529,
  "\u2581thorough": 7530,
  "\u2581university": 7531,
  "\u2581wash": 7532,
  "\u2581za": 7533,
  "\u2581\u1ecbr\u1ee5zu": 7534,
  "kw\u1ee5wa": 7535,
  "\u1ee5f\u1ecdd\u1ee5": 7536,
  "\u25811995,": 7537,
  "\u2581Aristotle": 7538,
  "\u2581BIRI": 7539,
  "\u2581Certainly": 7540,
  "\u2581Elizabeth": 7541,
  "\u2581Filip": 7542,
  "\u2581M\u1ee5tara": 7543,
  "\u2581Unknown": 7544,
  "\u2581WHO": 7545,
  "\u2581Wise": 7546,
  "\u2581afford": 7547,
  "\u2581an\u1ecdgidewo": 7548,
  "\u2581ar\u1ee5r\u1ee5ala": 7549,
  "\u2581cheghar\u1ecbr\u1ecb": 7550,
  "\u2581commercial": 7551,
  "\u2581diabetes": 7552,
  "\u2581egbugb": 7553,
  "\u2581eruola": 7554,
  "\u2581extensive": 7555,
  "\u2581fair": 7556,
  "\u2581fuel": 7557,
  "\u2581materially": 7558,
  "\u2581nkenke": 7559,
  "\u2581refreshment": 7560,
  "\u2581r\u1ee5zuru": 7561,
  "\u2581t\u1ecdhap\u1ee5": 7562,
  "\u2581ugo": 7563,
  "\u2581virtue": 7564,
  "\u2581worthwhile": 7565,
  "\u2581\u1ecbkwaga": 7566,
  "\u2581\u1ecbnwa": 7567,
  "\u2581\u1ee4gha": 7568,
  "dicating": 7569,
  "disfellowshipped": 7570,
  "ghi": 7571,
  "gu": 7572,
  "hi": 7573,
  "jara": 7574,
  "practicing": 7575,
  "va": 7576,
  "\u25811952": 7577,
  "\u2581Absal\u1ecdm": 7578,
  "\u2581Ah\u1ecba": 7579,
  "\u2581MB": 7580,
  "\u2581Nineveh": 7581,
  "\u2581Nk\u00e0": 7582,
  "\u2581Science": 7583,
  "\u2581akw\u1ee5s\u1ecbgh\u1ecb": 7584,
  "\u2581bit": 7585,
  "\u2581bore": 7586,
  "\u2581cooperate": 7587,
  "\u2581festival": 7588,
  "\u2581grows": 7589,
  "\u2581homeland": 7590,
  "\u2581honestly": 7591,
  "\u2581keere": 7592,
  "\u2581neutrality": 7593,
  "\u2581nurse": 7594,
  "\u2581nyefee": 7595,
  "\u2581oldest": 7596,
  "\u2581pity": 7597,
  "\u2581recognition": 7598,
  "\u2581rooms": 7599,
  "\u2581sensitive": 7600,
  "\u2581spreading": 7601,
  "chie": 7602,
  "der": 7603,
  "ikwek\u1ecd": 7604,
  "up": 7605,
  "\u258130]": 7606,
  "\u2581Apply": 7607,
  "\u2581College": 7608,
  "\u2581J\u1ecdnatan": 7609,
  "\u2581Mediterranean": 7610,
  "\u2581OLE": 7611,
  "\u2581Sandra": 7612,
  "\u2581bar": 7613,
  "\u2581continually": 7614,
  "\u2581define": 7615,
  "\u2581desperate": 7616,
  "\u2581elebara": 7617,
  "\u2581enwegh\u1ecbkwa": 7618,
  "\u2581favorably": 7619,
  "\u2581feast": 7620,
  "\u2581fr\u00e9\u00e8m\u00f9": 7621,
  "\u2581g\u1ee5chara": 7622,
  "\u2581height": 7623,
  "\u2581idei": 7624,
  "\u2581kpuchiri": 7625,
  "\u2581ogwu": 7626,
  "\u2581oliv": 7627,
  "\u2581ordinary": 7628,
  "\u2581rapidly": 7629,
  "\u2581route": 7630,
  "\u2581sentenced": 7631,
  "\u2581siblings": 7632,
  "\u2581thrilling": 7633,
  "\u2581upper": 7634,
  "\u2581\u1ecbch\u1ee5so": 7635,
  "\u2581\u1ecdny\u00e1": 7636,
  "G\u1ecb": 7637,
  "RA": 7638,
  "ob\u00ed": 7639,
  "ul": 7640,
  "\u1ecdch\u1ecbch\u1ecd": 7641,
  "\u1ecdgb\u1ee5gba": 7642,
  "\u1ecdg\u1ee5": 7643,
  "\u2581104": 7644,
  "\u258114]": 7645,
  "\u258137,": 7646,
  "\u2581Bido": 7647,
  "\u2581Golde": 7648,
  "\u2581Listen": 7649,
  "\u2581Mmek\u1ecdr\u1ecbta": 7650,
  "\u2581Nebuchadnezzar": 7651,
  "\u2581Shepherd": 7652,
  "\u2581agh\u1ecd\u1ecdla": 7653,
  "\u2581aim": 7654,
  "\u2581attempts": 7655,
  "\u2581bears": 7656,
  "\u2581chekwara": 7657,
  "\u2581confirmed": 7658,
  "\u2581d\u1ecbt\u1ee5": 7659,
  "\u2581gbasiri": 7660,
  "\u2581ikpo": 7661,
  "\u2581ke": 7662,
  "\u2581kpochap\u1ee5": 7663,
  "\u2581k\u1ee5": 7664,
  "\u2581memorial": 7665,
  "\u2581preachers": 7666,
  "\u2581prophesied": 7667,
  "\u2581rebel": 7668,
  "\u2581romantic": 7669,
  "\u2581saving": 7670,
  "\u2581seat": 7671,
  "\u2581somewhat": 7672,
  "\u2581tries": 7673,
  "\u2581welcomed": 7674,
  "\u2581\u00e0kw\u00e1": 7675,
  "\u2581\u1ecbkp\u1ecdlite": 7676,
  "ikwusa": 7677,
  "only": 7678,
  "po": 7679,
  "they": 7680,
  "\u258197": 7681,
  "\u2581Nd\u00fa": 7682,
  "\u2581Paulo": 7683,
  "\u2581Priest": 7684,
  "\u2581Sydney": 7685,
  "\u2581Wep\u1ee5": 7686,
  "\u2581Zekara\u1ecba": 7687,
  "\u2581absolutely": 7688,
  "\u2581actively": 7689,
  "\u2581adding": 7690,
  "\u2581amachagh\u1ecb": 7691,
  "\u2581an\u1ecdk\u1ecd": 7692,
  "\u2581an\u1ee5n\u1ee5": 7693,
  "\u2581as\u1ecbr\u1ecb": 7694,
  "\u2581damaged": 7695,
  "\u2581enhance": 7696,
  "\u2581entering": 7697,
  "\u2581forgotten": 7698,
  "\u2581founded": 7699,
  "\u2581gentle": 7700,
  "\u2581illustrates": 7701,
  "\u2581intentions": 7702,
  "\u2581p\u1ee5tagh\u1ecb": 7703,
  "\u2581slowly": 7704,
  "\u2581taste": 7705,
  "\u2581warn": 7706,
  "\u2581waves": 7707,
  "\u2581\u1ecdbjekt\u1ecb": 7708,
  "Our": 7709,
  "kas\u1ecb": 7710,
  "name": 7711,
  "olulu": 7712,
  "\u1ecdch\u1ecbch\u1ecbr\u1ecb": 7713,
  "\u258164": 7714,
  "\u2581Absalom": 7715,
  "\u2581Care": 7716,
  "\u2581Dabeere": 7717,
  "\u2581Jeriko": 7718,
  "\u2581Na\u1ecbsan": 7719,
  "\u2581Office": 7720,
  "\u2581Pano": 7721,
  "\u2581SEE": 7722,
  "\u2581adversity": 7723,
  "\u2581ar\u1ee5zi": 7724,
  "\u2581awe": 7725,
  "\u2581b\u1ecbakwara": 7726,
  "\u2581b\u1ecbaran\u1ee5": 7727,
  "\u2581convince": 7728,
  "\u2581duziri": 7729,
  "\u2581emeghe": 7730,
  "\u2581feeding": 7731,
  "\u2581foremost": 7732,
  "\u2581graduates": 7733,
  "\u2581imperfections": 7734,
  "\u2581improved": 7735,
  "\u2581kpughee": 7736,
  "\u2581leadership": 7737,
  "\u2581loud": 7738,
  "\u2581parental": 7739,
  "\u2581product": 7740,
  "\u2581sorry": 7741,
  "\u2581\u1ecamata": 7742,
  "\u2581\u1ecbg\u1ee5nye": 7743,
  "\u2581\u1ecdb\u1ecd": 7744,
  "Anyas\u1ecb": 7745,
  "ejigh\u1ecb": 7746,
  "lying": 7747,
  "om": 7748,
  "\u1ee5s\u1ecbr\u1ecb": 7749,
  "\u2581D\u1ecbr\u1ecb": 7750,
  "\u2581ECHICHE": 7751,
  "\u2581Friday": 7752,
  "\u2581Home": 7753,
  "\u2581Ikwu": 7754,
  "\u2581Josephus": 7755,
  "\u2581Ogologo": 7756,
  "\u2581Part": 7757,
  "\u2581Samson": 7758,
  "\u2581aj\u1ecb": 7759,
  "\u2581bekee": 7760,
  "\u2581contribution": 7761,
  "\u2581deaths": 7762,
  "\u2581gbak\u1ecdtara": 7763,
  "\u2581generations": 7764,
  "\u2581initially": 7765,
  "\u2581killing": 7766,
  "\u2581kwup\u1ee5ta": 7767,
  "\u2581needy": 7768,
  "\u2581ongoing": 7769,
  "\u2581paths": 7770,
  "\u2581pregnancy": 7771,
  "\u2581priesthood": 7772,
  "\u2581reminder": 7773,
  "\u2581saa": 7774,
  "\u2581tiivi": 7775,
  "\u2581ude": 7776,
  "\u2581wishes": 7777,
  "\u2581\u1ecbnap\u1ee5ta": 7778,
  "\u2581\u1ecdch\u1ecbagha": 7779,
  "ES": 7780,
  "ebido": 7781,
  "mba": 7782,
  "\u258159": 7783,
  "\u2581Aj\u1ecd": 7784,
  "\u2581Catholics": 7785,
  "\u2581Malawi": 7786,
  "\u2581Nothing": 7787,
  "\u2581Thereafter": 7788,
  "\u2581ach\u1ecbk\u1ecdta": 7789,
  "\u2581ach\u1ee5r\u1ee5": 7790,
  "\u2581akpachara": 7791,
  "\u2581belonging": 7792,
  "\u2581chaste": 7793,
  "\u2581cherish": 7794,
  "\u2581commissioned": 7795,
  "\u2581employer": 7796,
  "\u2581movies": 7797,
  "\u2581plain": 7798,
  "\u2581protects": 7799,
  "\u2581restoration": 7800,
  "\u2581seeds": 7801,
  "\u2581sonyere": 7802,
  "\u2581transferred": 7803,
  "\u2581trap": 7804,
  "\u2581tremendous": 7805,
  "\u2581\u1ecb\u1e45a": 7806,
  "EL": 7807,
  "ID": 7808,
  "du": 7809,
  "if": 7810,
  "let": 7811,
  "lin": 7812,
  "\u2581Chetara": 7813,
  "\u2581Continue": 7814,
  "\u2581Eli": 7815,
  "\u2581Eluigwe": 7816,
  "\u2581File": 7817,
  "\u2581Nwanne": 7818,
  "\u2581Post": 7819,
  "\u2581Program": 7820,
  "\u2581Stop": 7821,
  "\u2581arara": 7822,
  "\u2581armed": 7823,
  "\u2581ar\u1ee5zu": 7824,
  "\u2581ashamed": 7825,
  "\u2581composed": 7826,
  "\u2581ekwek\u1ecd": 7827,
  "\u2581exercised": 7828,
  "\u2581fifth": 7829,
  "\u2581forgiven": 7830,
  "\u2581happier": 7831,
  "\u2581hopes": 7832,
  "\u2581horse": 7833,
  "\u2581implies": 7834,
  "\u2581incense": 7835,
  "\u2581infant": 7836,
  "\u2581narrow": 7837,
  "\u2581normally": 7838,
  "\u2581nraranye": 7839,
  "\u2581organizations": 7840,
  "\u2581permitted": 7841,
  "\u2581pleasures": 7842,
  "\u2581recommended": 7843,
  "\u2581reduced": 7844,
  "\u2581respectful": 7845,
  "\u2581towns": 7846,
  "\u2581\u1e45\u1ee5r\u1ee5": 7847,
  "\u2581\u1ecbhazi": 7848,
  "\u2581\u1eccs\u1ecd": 7849,
  "\u2581\u1ecdk\u1ecdch\u1ecb": 7850,
  "ak": 7851,
  "chebara": 7852,
  "cy": 7853,
  "doubtedly": 7854,
  "f\u1ecd": 7855,
  "ina": 7856,
  "lar\u1ecb": 7857,
  "s\u1ee5": 7858,
  "upreme": 7859,
  "\u2581Council": 7860,
  "\u2581Ebube": 7861,
  "\u2581Giving": 7862,
  "\u2581Government": 7863,
  "\u2581Island": 7864,
  "\u2581Toronto": 7865,
  "\u2581at\u1ee5nyere": 7866,
  "\u2581await": 7867,
  "\u2581commended": 7868,
  "\u2581conquered": 7869,
  "\u2581cutting": 7870,
  "\u2581emet\u1ecd": 7871,
  "\u2581expanded": 7872,
  "\u2581falls": 7873,
  "\u2581game": 7874,
  "\u2581goats": 7875,
  "\u2581guarantee": 7876,
  "\u2581hears": 7877,
  "\u2581imep\u1ee5ta": 7878,
  "\u2581materials": 7879,
  "\u2581meals": 7880,
  "\u2581mpe": 7881,
  "\u2581publisher": 7882,
  "\u2581shut": 7883,
  "\u2581spring": 7884,
  "\u2581stable": 7885,
  "\u2581standpoint": 7886,
  "\u2581staying": 7887,
  "\u2581vary": 7888,
  "\u2581werekwa": 7889,
  "su": 7890,
  "ze": 7891,
  "\u1ecbh\u1ee5": 7892,
  "\u2581Die": 7893,
  "\u2581Legod\u1ecb": 7894,
  "\u2581Mp\u1ecbak\u1ecdta": 7895,
  "\u2581Obviously": 7896,
  "\u2581Worldwide": 7897,
  "\u2581Zefana\u1ecba": 7898,
  "\u2581crying": 7899,
  "\u2581dedicate": 7900,
  "\u2581fault": 7901,
  "\u2581fixed": 7902,
  "\u2581frustration": 7903,
  "\u2581grass": 7904,
  "\u2581keen": 7905,
  "\u2581mesie": 7906,
  "\u2581m\u1ee5wa": 7907,
  "\u2581ocheeze": 7908,
  "\u2581rarely": 7909,
  "\u2581shape": 7910,
  "\u2581span": 7911,
  "\u2581valley": 7912,
  "\u2581yikwara": 7913,
  "\u2581zaghachiri": 7914,
  "\u2581\u1ecbkw\u1ecd": 7915,
  "\u2581\u1ecbr\u1ecba": 7916,
  "Australia": 7917,
  "gh\u1ecbzi": 7918,
  "meghachi": 7919,
  "pi": 7920,
  "proving": 7921,
  "\u0101": 7922,
  "\u1ecdmitii": 7923,
  "\u2581Bank": 7924,
  "\u2581Loida": 7925,
  "\u2581Research": 7926,
  "\u2581Samaritan": 7927,
  "\u2581Yearbook": 7928,
  "\u2581amazed": 7929,
  "\u2581behave": 7930,
  "\u2581cloud": 7931,
  "\u2581commend": 7932,
  "\u2581delegates": 7933,
  "\u2581efere": 7934,
  "\u2581ejirila": 7935,
  "\u2581emej\u1ecd": 7936,
  "\u2581etu": 7937,
  "\u2581gwakwa": 7938,
  "\u2581infected": 7939,
  "\u2581kp\u1ecdkwara": 7940,
  "\u2581kwu": 7941,
  "\u2581managed": 7942,
  "\u2581mechiri": 7943,
  "\u2581nwewe": 7944,
  "\u2581okpu": 7945,
  "\u2581options": 7946,
  "\u2581phrase": 7947,
  "\u2581port": 7948,
  "\u2581rose": 7949,
  "\u2581sounds": 7950,
  "\u2581strange": 7951,
  "\u2581stumbling": 7952,
  "\u2581talent": 7953,
  "\u2581talents": 7954,
  "\u2581unscriptural": 7955,
  "\u2581wearing": 7956,
  "\u2581\u1ecbgbasi": 7957,
  "Ozizi": 7958,
  "anw\u1ee5": 7959,
  "ekwe": 7960,
  "ezip\u1ee5ta": 7961,
  "ner": 7962,
  "olileanya": 7963,
  "osimiri": 7964,
  "\u2581$": 7965,
  "\u258110.)": 7966,
  "\u2581139": 7967,
  "\u258138,": 7968,
  "\u2581Bad": 7969,
  "\u2581Chee": 7970,
  "\u2581Gentiles": 7971,
  "\u2581Had": 7972,
  "\u2581ISSUE": 7973,
  "\u2581Indian": 7974,
  "\u2581Ir\u00e8": 7975,
  "\u2581Islands": 7976,
  "\u2581Money": 7977,
  "\u2581Origen": 7978,
  "\u2581Polyglot": 7979,
  "\u2581Retr": 7980,
  "\u2581Thessalonica": 7981,
  "\u2581Tyndale": 7982,
  "\u2581agbanweela": 7983,
  "\u2581anap\u1ee5": 7984,
  "\u2581anw\u1ee5\u1ecdla": 7985,
  "\u2581confirm": 7986,
  "\u2581connected": 7987,
  "\u2581deliberately": 7988,
  "\u2581discouragement": 7989,
  "\u2581duty": 7990,
  "\u2581eguzogide": 7991,
  "\u2581emphasis": 7992,
  "\u2581fewe": 7993,
  "\u2581garment": 7994,
  "\u2581gatherings": 7995,
  "\u2581gbasie": 7996,
  "\u2581heritage": 7997,
  "\u2581inclination": 7998,
  "\u2581independent": 7999,
  "\u2581moments": 8000,
  "\u2581nkwuwa": 8001,
  "\u2581nw\u1ee5chara": 8002,
  "\u2581ridicule": 8003,
  "\u2581r\u1ecbba": 8004,
  "\u2581r\u1ee5wa": 8005,
  "\u2581stupid": 8006,
  "\u2581urgent": 8007,
  "AN": 8008,
  "ated": 8009,
  "d\u1ecbgh\u1ecb": 8010,
  "ieved": 8011,
  "some": 8012,
  "\u1ee5hara": 8013,
  "\u2581130": 8014,
  "\u258168": 8015,
  "\u2581Elders": 8016,
  "\u2581Jon": 8017,
  "\u2581Phil": 8018,
  "\u2581President": 8019,
  "\u2581Retriev": 8020,
  "\u2581Review": 8021,
  "\u2581constitute": 8022,
  "\u2581dejup\u1ee5ta": 8023,
  "\u2581elezi": 8024,
  "\u2581enwebegh\u1ecb": 8025,
  "\u2581equipment": 8026,
  "\u2581exclaimed": 8027,
  "\u2581forbidden": 8028,
  "\u2581garments": 8029,
  "\u2581headed": 8030,
  "\u2581hypocrisy": 8031,
  "\u2581idebata": 8032,
  "\u2581ikwup\u1ee5ta": 8033,
  "\u2581immortal": 8034,
  "\u2581inspiration": 8035,
  "\u2581originate": 8036,
  "\u2581proclaim": 8037,
  "\u2581production": 8038,
  "\u2581reassuring": 8039,
  "\u2581rob": 8040,
  "\u2581silence": 8041,
  "\u2581sistem": 8042,
  "\u2581wages": 8043,
  "\u2581\u00fakw\u00f9": 8044,
  "echegh\u1ecb": 8045,
  "ius": 8046,
  "nup\u1ee5r\u1ee5": 8047,
  "que": 8048,
  "\u25811988": 8049,
  "\u258146.": 8050,
  "\u25818.)": 8051,
  "\u2581Am\u1ee5": 8052,
  "\u2581Ca": 8053,
  "\u2581Insight": 8054,
  "\u2581Jan": 8055,
  "\u2581Samaria": 8056,
  "\u2581Uhie": 8057,
  "\u2581agwagh\u1ecb": 8058,
  "\u2581banned": 8059,
  "\u2581concludes": 8060,
  "\u2581ebikwa": 8061,
  "\u2581emek\u1ecdr\u1ecbta": 8062,
  "\u2581feared": 8063,
  "\u2581guzogide": 8064,
  "\u2581ikwusara": 8065,
  "\u2581judicial": 8066,
  "\u2581kele": 8067,
  "\u2581latter": 8068,
  "\u2581meghee": 8069,
  "\u2581met\u1ee5": 8070,
  "\u2581pour": 8071,
  "\u2581psalm": 8072,
  "\u2581reserved": 8073,
  "\u2581seconds": 8074,
  "\u2581secretary": 8075,
  "\u2581stressed": 8076,
  "\u2581tiny": 8077,
  "\u2581transform": 8078,
  "\u2581ultimately": 8079,
  "\u2581villages": 8080,
  "\u2581wholeheartedly": 8081,
  "\u2581\u1ecdb\u1ee5b\u1ee5enyi": 8082,
  "d\u1ecd": 8083,
  "iche": 8084,
  "land": 8085,
  "obi\u1ecdma": 8086,
  "\u1ecbgbaso": 8087,
  "\u2581ARTICLES": 8088,
  "\u2581Ann": 8089,
  "\u2581Austria": 8090,
  "\u2581Egwuregwu": 8091,
  "\u2581Ever": 8092,
  "\u2581Ghana": 8093,
  "\u2581Names": 8094,
  "\u2581Nazareth": 8095,
  "\u2581Nebal": 8096,
  "\u2581Neither": 8097,
  "\u2581Pa": 8098,
  "\u2581Queen": 8099,
  "\u2581Run": 8100,
  "\u2581URU": 8101,
  "\u2581aging": 8102,
  "\u2581ak\u1ecdwara": 8103,
  "\u2581awaiting": 8104,
  "\u2581awakpo": 8105,
  "\u2581combined": 8106,
  "\u2581contributions": 8107,
  "\u2581crucial": 8108,
  "\u2581esteem": 8109,
  "\u2581exemplary": 8110,
  "\u2581gbanye": 8111,
  "\u2581heartwarming": 8112,
  "\u2581jaa": 8113,
  "\u2581kpe": 8114,
  "\u2581lean": 8115,
  "\u2581loneliness": 8116,
  "\u2581match": 8117,
  "\u2581mbubata": 8118,
  "\u2581nwewo": 8119,
  "\u2581n\u1ecdd\u1ee5": 8120,
  "\u2581pounds": 8121,
  "\u2581round": 8122,
  "\u2581sand": 8123,
  "\u2581specify": 8124,
  "\u2581square": 8125,
  "\u2581steeti": 8126,
  "\u2581t": 8127,
  "\u2581territories": 8128,
  "\u2581thereby": 8129,
  "\u2581weeds": 8130,
  "\u2581\u00e0gw\u00e0etiti": 8131,
  "duziri": 8132,
  "nne": 8133,
  "\u2581AK\u1ee4K\u1ecc": 8134,
  "\u2581Actually": 8135,
  "\u2581Background": 8136,
  "\u2581Bo": 8137,
  "\u2581Gabriel": 8138,
  "\u2581Humans": 8139,
  "\u2581Jehoash": 8140,
  "\u2581Lat\u1ecbn": 8141,
  "\u2581Ngw": 8142,
  "\u2581Personal": 8143,
  "\u2581TETA": 8144,
  "\u2581agh\u1ecdgbu": 8145,
  "\u2581anw\u1ee5gh\u1ecb": 8146,
  "\u2581b": 8147,
  "\u2581blow": 8148,
  "\u2581breaking": 8149,
  "\u2581chores": 8150,
  "\u2581copied": 8151,
  "\u2581crops": 8152,
  "\u2581crown": 8153,
  "\u2581deceptive": 8154,
  "\u2581educated": 8155,
  "\u2581gladly": 8156,
  "\u2581hall": 8157,
  "\u2581izo": 8158,
  "\u2581mechakwara": 8159,
  "\u2581mob": 8160,
  "\u2581movie": 8161,
  "\u2581offended": 8162,
  "\u2581perceive": 8163,
  "\u2581planned": 8164,
  "\u2581stating": 8165,
  "\u2581telifon": 8166,
  "\u2581tract": 8167,
  "\u2581uri": 8168,
  "\u2581v": 8169,
  "\u2581ype": 8170,
  "guzosi": 8171,
  "\u1ecbr\u1ecb": 8172,
  "\u1ecbr\u1ee5": 8173,
  "\u2581Ada": 8174,
  "\u2581Age": 8175,
  "\u2581Athens": 8176,
  "\u2581Bas": 8177,
  "\u2581Copy": 8178,
  "\u2581Ekele": 8179,
  "\u2581Nch\u1ee5\u00e0j\u00e0": 8180,
  "\u2581Nehemaya": 8181,
  "\u2581Tertullian": 8182,
  "\u2581Type": 8183,
  "\u2581ah\u1ee5t\u1ee5begh\u1ecb": 8184,
  "\u2581apostate": 8185,
  "\u2581collection": 8186,
  "\u2581cooperation": 8187,
  "\u2581desert": 8188,
  "\u2581eli": 8189,
  "\u2581ezute": 8190,
  "\u2581gakwuuru": 8191,
  "\u2581honesthearted": 8192,
  "\u2581ibip\u1ee5ta": 8193,
  "\u2581kewara": 8194,
  "\u2581kpegaara": 8195,
  "\u2581lawa": 8196,
  "\u2581mbunobi": 8197,
  "\u2581neighborhood": 8198,
  "\u2581ngwa\u1ecdr\u1ee5": 8199,
  "\u2581nyochara": 8200,
  "\u2581occasionally": 8201,
  "\u2581ori\u1ecdna": 8202,
  "\u2581proclaimed": 8203,
  "\u2581protective": 8204,
  "\u2581roots": 8205,
  "\u2581sadness": 8206,
  "\u2581sava": 8207,
  "\u2581\u1ecbmanye": 8208,
  "ki": 8209,
  "\u2581Bat": 8210,
  "\u2581Icon": 8211,
  "\u2581Manasseh": 8212,
  "\u2581Third": 8213,
  "\u2581any\u1ecbnwa": 8214,
  "\u2581armor": 8215,
  "\u2581arrest": 8216,
  "\u2581deadly": 8217,
  "\u2581empathy": 8218,
  "\u2581gh\u1ecd\u1ecdr\u1ecd": 8219,
  "\u2581ichewe": 8220,
  "\u2581indication": 8221,
  "\u2581m\u1ee5baa": 8222,
[...]
